{
  "\u0000": 0,
  "\u0001": 1,
  "\u0002": 2,
  "\u0003": 3,
  "\u0004": 4,
  "\u0005": 5,
  "\u0006": 6,
  "\u0007": 7,
  "\b": 8,
  "\t": 9,
  "\n": 10,
  "\u000b": 11,
  "\f": 12,
  "\r": 13,
  "\u000e": 14,
  "\u000f": 15,
  "\u0010": 16,
  "\u0011": 17,
  "\u0012": 18,
  "\u0013": 19,
  "\u0014": 20,
  "\u0015": 21,
  "\u0016": 22,
  "\u0017": 23,
  "\u0018": 24,
  "\u0019": 25,
  "\u001a": 26,
  "\u001b": 27,
  "\u001c": 28,
  "\u001d": 29,
  "\u001e": 30,
  "\u001f": 31,
  " ": 32,
  "!": 33,
  "\"": 34,
  "#": 35,
  "$": 36,
  "%": 37,
  "&": 38,
  "'": 39,
  "(": 40,
  ")": 41,
  "*": 42,
  "+": 43,
  ",": 44,
  "-": 45,
  ".": 46,
  "/": 47,
  "0": 48,
  "1": 49,
  "2": 50,
  "3": 51,
  "4": 52,
  "5": 53,
  "6": 54,
  "7": 55,
  "8": 56,
  "9": 57,
  ":": 58,
  ";": 59,
  "<": 60,
  "=": 61,
  ">": 62,
  "?": 63,
  "@": 64,
  "A": 65,
  "B": 66,
  "C": 67,
  "D": 68,
  "E": 69,
  "F": 70,
  "G": 71,
  "H": 72,
  "I": 73,
  "J": 74,
  "K": 75,
  "L": 76,
  "M": 77,
  "N": 78,
  "O": 79,
  "P": 80,
  "Q": 81,
  "R": 82,
  "S": 83,
  "T": 84,
  "U": 85,
  "V": 86,
  "W": 87,
  "X": 88,
  "Y": 89,
  "Z": 90,
  "[": 91,
  "\\": 92,
  "]": 93,
  "^": 94,
  "_": 95,
  "`": 96,
  "a": 97,
  "b": 98,
  "c": 99,
  "d": 100,
  "e": 101,
  "f": 102,
  "g": 103,
  "h": 104,
  "i": 105,
  "j": 106,
  "k": 107,
  "l": 108,
  "m": 109,
  "n": 110,
  "o": 111,
  "p": 112,
  "q": 113,
  "r": 114,
  "s": 115,
  "t": 116,
  "u": 117,
  "v": 118,
  "w": 119,
  "x": 120,
  "y": 121,
  "z": 122,
  "{": 123,
  "|": 124,
  "}": 125,
  "~": 126,
  "": 127,
  "�": 31931,
  "<|endoftext|>": 256,
  " t": 257,
  " a": 258,
  "he": 259,
  "in": 260,
  "re": 261,
  " the": 262,
  "on": 263,
  "er": 264,
  " s": 265,
  " w": 266,
  "at": 267,
  " o": 268,
  "en": 269,
  " c": 270,
  "it": 271,
  "is": 272,
  "an": 273,
  "or": 274,
  " b": 275,
  "es": 276,
  "ed": 277,
  " f": 278,
  "ing": 279,
  " p": 280,
  "ou": 281,
  " an": 282,
  "al": 283,
  " to": 284,
  "ar": 285,
  " m": 286,
  " in": 287,
  " of": 288,
  " h": 289,
  " d": 290,
  "as": 292,
  "ic": 293,
  " and": 294,
  " th": 295,
  "le": 296,
  "om": 297,
  "ion": 298,
  "ll": 299,
  "ent": 300,
  " n": 301,
  " l": 302,
  " re": 303,
  "st": 304,
  "ve": 305,
  " e": 306,
  "ly": 307,
  "ro": 308,
  " be": 309,
  " g": 310,
  "id": 311,
  "ut": 312,
  "ac": 313,
  "ot": 314,
  " T": 315,
  " I": 316,
  " that": 317,
  " on": 318,
  "ay": 319,
  " S": 320,
  " is": 321,
  "et": 322,
  "im": 323,
  "am": 324,
  "ad": 325,
  "ow": 326,
  "se": 327,
  "ig": 328,
  " for": 329,
  "’": 330,
  " A": 331,
  "ver": 332,
  "ur": 333,
  "ct": 334,
  "ld": 335,
  " C": 336,
  " u": 337,
  " st": 338,
  " y": 339,
  " it": 340,
  " he": 341,
  "ir": 342,
  "ation": 343,
  "ith": 344,
  " wh": 345,
  " M": 346,
  "ce": 347,
  "ter": 348,
  "ol": 349,
  " we": 350,
  "il": 351,
  " with": 352,
  " as": 353,
  " B": 354,
  "ch": 355,
  "ill": 356,
  "nd": 357,
  " P": 358,
  " was": 359,
  "ers": 360,
  " you": 361,
  "ke": 362,
  " �": 31255,
  " con": 364,
  " de": 365,
  " r": 366,
  "her": 367,
  "if": 368,
  "ate": 369,
  "ag": 370,
  " at": 371,
  " ha": 372,
  " W": 373,
  " se": 374,
  " H": 375,
  "ore": 376,
  " pro": 377,
  "ul": 378,
  "pp": 379,
  "ment": 380,
  "ri": 381,
  " are": 382,
  " D": 383,
  " 1": 384,
  "us": 385,
  "est": 386,
  "ist": 387,
  " com": 388,
  "and": 389,
  " R": 390,
  "op": 391,
  "ain": 392,
  " The": 393,
  " 2": 394,
  "igh": 395,
  "rom": 396,
  " (": 397,
  "ort": 398,
  "od": 399,
  " ne": 400,
  " F": 401,
  "um": 402,
  "un": 403,
  " ex": 404,
  "res": 405,
  "ab": 406,
  "”": 407,
  " not": 408,
  " N": 409,
  " v": 410,
  "ess": 411,
  " have": 412,
  "ity": 413,
  "em": 414,
  "ould": 415,
  " or": 416,
  "th": 417,
  " by": 418,
  "os": 419,
  "ant": 420,
  " G": 421,
  "ive": 422,
  " from": 423,
  " al": 424,
  "el": 425,
  "'s": 426,
  "oc": 427,
  "art": 428,
  " su": 429,
  " L": 430,
  " sh": 431,
  " this": 432,
  "nt": 433,
  "qu": 434,
  "ight": 435,
  "pe": 436,
  "ust": 437,
  " le": 438,
  "ies": 439,
  " E": 440,
  "end": 441,
  " ch": 442,
  " sa": 443,
  "out": 444,
  " ab": 445,
  "The": 446,
  "all": 447,
  "ie": 448,
  "ack": 449,
  "red": 450,
  "00": 451,
  " “": 452,
  " has": 453,
  "ally": 454,
  " J": 455,
  " pl": 456,
  " go": 457,
  "ard": 458,
  "iv": 459,
  " his": 460,
  "ome": 461,
  "ap": 462,
  "ost": 463,
  "gh": 464,
  "ear": 465,
  " O": 466,
  " tr": 467,
  "our": 468,
  "ast": 469,
  " j": 470,
  "ak": 471,
  "ud": 472,
  " do": 473,
  " they": 474,
  " but": 475,
  " wor": 476,
  "rou": 477,
  " can": 478,
  "ge": 479,
  " will": 480,
  " said": 481,
  " whe": 482,
  " U": 483,
  " k": 484,
  "ich": 485,
  " all": 486,
  "ok": 487,
  " \"": 488,
  "ide": 489,
  " who": 490,
  " int": 491,
  "ame": 492,
  "ans": 493,
  "ther": 494,
  "ial": 495,
  " out": 496,
  "ff": 497,
  " their": 498,
  "ong": 499,
  "ect": 500,
  "pl": 501,
  "ice": 502,
  "ure": 503,
  "pt": 504,
  "one": 505,
  " more": 506,
  "age": 507,
  "ions": 508,
  "act": 509,
  "ike": 510,
  " me": 511,
  " up": 512,
  "ous": 513,
  "ine": 514,
  " ad": 515,
  " about": 516,
  "ated": 517,
  "ra": 518,
  "ber": 519,
  " one": 520,
  " were": 521,
  " so": 522,
  " us": 523,
  "ime": 524,
  "og": 525,
  " K": 526,
  "ep": 527,
  "ia": 528,
  " had": 529,
  "are": 530,
  "ub": 531,
  "cc": 532,
  " would": 533,
  " cl": 534,
  " 20": 535,
  " im": 536,
  " which": 537,
  "ind": 538,
  "ue": 539,
  "ake": 540,
  " cont": 541,
  "iz": 542,
  "very": 543,
  " ag": 544,
  " te": 545,
  " off": 546,
  " comp": 547,
  " un": 548,
  " been": 549,
  " St": 550,
  "so": 551,
  " en": 552,
  "per": 553,
  "ign": 554,
  "au": 555,
  " Th": 556,
  "ary": 557,
  "ace": 558,
  " year": 559,
  "ip": 560,
  "ew": 561,
  " like": 562,
  "ere": 563,
  "ven": 564,
  "ook": 565,
  " inc": 566,
  "ays": 567,
  " man": 568,
  " pe": 569,
  "ry": 570,
  "ose": 571,
  " res": 572,
  "able": 573,
  "ite": 574,
  " per": 575,
  "ass": 576,
  "ord": 577,
  " sp": 578,
  "ire": 579,
  " In": 580,
  " other": 581,
  "mer": 582,
  " some": 583,
  "ile": 584,
  "ib": 585,
  "ence": 586,
  "ople": 587,
  " 201": 588,
  "ks": 589,
  "ations": 590,
  " over": 591,
  "ical": 592,
  " there": 593,
  "ress": 594,
  " dis": 595,
  "ult": 596,
  "int": 597,
  " new": 598,
  "own": 599,
  " also": 600,
  " than": 601,
  " ar": 602,
  " bec": 603,
  "ru": 604,
  " them": 605,
  "ance": 606,
  "ount": 607,
  "ough": 608,
  " app": 609,
  "port": 610,
  "ail": 611,
  " part": 612,
  " your": 613,
  " when": 614,
  "ree": 615,
  " what": 616,
  "orm": 617,
  "ond": 618,
  " people": 619,
  "fter": 620,
  " sc": 621,
  " Ch": 622,
  "av": 623,
  "ase": 624,
  " qu": 625,
  " any": 626,
  " just": 627,
  " its": 628,
  " Y": 629,
  "ach": 630,
  " time": 631,
  " It": 632,
  " kn": 633,
  " her": 634,
  " 3": 635,
  "ens": 636,
  "lic": 637,
  " rec": 638,
  "reat": 639,
  " my": 640,
  " get": 641,
  " if": 642,
  " V": 643,
  "ian": 644,
  ".”": 645,
  " into": 646,
  "ound": 647,
  " work": 648,
  " tw": 649,
  "irst": 650,
  "vel": 651,
  "ction": 652,
  " no": 653,
  "du": 654,
  "ings": 655,
  "ory": 656,
  "ick": 657,
  "ors": 658,
  " our": 659,
  "ition": 660,
  "ident": 661,
  "ob": 662,
  " -": 663,
  " pre": 664,
  "ove": 665,
  " play": 666,
  "ang": 667,
  "ink": 668,
  "ause": 669,
  "wn": 670,
  "te": 671,
  "amp": 672,
  "ade": 673,
  "hing": 674,
  "ates": 675,
  "ark": 676,
  " ro": 677,
  " pol": 678,
  " she": 679,
  "vers": 680,
  " co": 681,
  ",”": 682,
  " after": 683,
  "ne": 684,
  " first": 685,
  " could": 686,
  " how": 687,
  " He": 688,
  " 19": 689,
  "ious": 690,
  "nder": 691,
  "ild": 692,
  " acc": 693,
  " him": 694,
  "aw": 695,
  "'t": 696,
  "ons": 697,
  " po": 698,
  " only": 699,
  " fe": 700,
  " att": 701,
  "ict": 702,
  "hed": 703,
  " pr": 704,
  " two": 705,
  "rit": 706,
  "ov": 707,
  "ish": 708,
  " comm": 709,
  "“": 710,
  "form": 711,
  " spe": 712,
  " act": 713,
  "we": 714,
  "erv": 715,
  " bl": 716,
  "ft": 717,
  ".\"": 718,
  " bet": 719,
  " dec": 720,
  "ning": 721,
  " back": 722,
  " most": 723,
  "ces": 724,
  "ood": 725,
  "ck": 726,
  " –": 727,
  " am": 728,
  "oy": 729,
  " did": 730,
  "rough": 731,
  "iff": 732,
  "ater": 733,
  "round": 734,
  " again": 735,
  " 4": 736,
  "ual": 737,
  "day": 738,
  "ise": 739,
  " under": 740,
  " des": 741,
  " want": 742,
  "ull": 743,
  "sel": 744,
  " cons": 745,
  " —": 746,
  "..": 747,
  " because": 748,
  " now": 749,
  "lud": 750,
  "ents": 751,
  " years": 752,
  "man": 753,
  "tern": 754,
  "ublic": 755,
  "ec": 756,
  " need": 757,
  " even": 758,
  " $": 759,
  "iss": 760,
  " inv": 761,
  " know": 762,
  " We": 763,
  " see": 764,
  "ments": 765,
  "ced": 766,
  " add": 767,
  ",\"": 768,
  "ting": 769,
  "old": 770,
  " ind": 771,
  " sec": 772,
  "fore": 773,
  "uch": 774,
  " every": 775,
  "urn": 776,
  " 5": 777,
  " supp": 778,
  " make": 779,
  "pect": 780,
  " Un": 781,
  " em": 782,
  " these": 783,
  "ock": 784,
  "oll": 785,
  " where": 786,
  "ject": 787,
  "In": 788,
  "ational": 789,
  "vern": 790,
  "xt": 791,
  " bu": 792,
  " look": 793,
  "Th": 794,
  " And": 795,
  "oss": 796,
  " don": 797,
  " ev": 798,
  "ump": 799,
  "ating": 800,
  " way": 801,
  " being": 802,
  " rem": 803,
  " right": 804,
  "ily": 805,
  " may": 806,
  "ng": 807,
  "row": 808,
  "lect": 809,
  "iew": 810,
  " then": 811,
  " many": 812,
  " [": 813,
  " diff": 814,
  " def": 815,
  "ason": 816,
  " rel": 817,
  " call": 818,
  " But": 819,
  " Tr": 820,
  "ont": 821,
  "ied": 822,
  "les": 823,
  "ased": 824,
  " includ": 825,
  " think": 826,
  "aking": 827,
  " reg": 828,
  ").": 829,
  "meric": 830,
  " imp": 831,
  " through": 832,
  "ath": 833,
  "ited": 834,
  "rib": 835,
  " sy": 836,
  " should": 837,
  " pres": 838,
  " say": 839,
  "ell": 840,
  " fl": 841,
  "uring": 842,
  " last": 843,
  " those": 844,
  "ower": 845,
  " very": 846,
  "ty": 847,
  "other": 848,
  " much": 849,
  "ities": 850,
  "ific": 851,
  " state": 852,
  " This": 853,
  "ative": 854,
  " show": 855,
  "tle": 856,
  "hen": 857,
  " br": 858,
  "ss": 859,
  "arg": 860,
  " well": 861,
  "oth": 862,
  " ph": 863,
  " Wh": 864,
  " count": 865,
  "als": 866,
  "und": 867,
  " 200": 868,
  " does": 869,
  " down": 870,
  " own": 871,
  "arly": 872,
  " end": 873,
  " ass": 874,
  " bel": 875,
  " use": 876,
  "ics": 877,
  "ange": 878,
  "--": 879,
  "ts": 880,
  " long": 881,
  " Americ": 882,
  "ters": 883,
  "ince": 884,
  " before": 885,
  "omet": 886,
  "gr": 887,
  " mon": 888,
  "ward": 889,
  " govern": 890,
  " start": 891,
  " report": 892,
  "ible": 893,
  " ke": 894,
  "up": 895,
  "ues": 896,
  " New": 897,
  " fin": 898,
  " team": 899,
  "ble": 900,
  " made": 901,
  "ife": 902,
  "olog": 903,
  "ener": 904,
  "),": 905,
  " such": 906,
  "ren": 907,
  "com": 908,
  "oun": 909,
  "erson": 910,
  "ek": 911,
  "ix": 912,
  " sm": 913,
  "—": 914,
  "lp": 915,
  "ility": 916,
  " going": 917,
  "ism": 918,
  "ful": 919,
  " world": 920,
  "ually": 921,
  " stud": 922,
  "ists": 923,
  " good": 924,
  " ac": 925,
  "tain": 926,
  "It": 927,
  " sub": 928,
  " eff": 929,
  " sur": 930,
  " against": 931,
  "its": 932,
  " game": 933,
  " set": 934,
  "ork": 935,
  " 6": 936,
  " gu": 937,
  " point": 938,
  " ent": 939,
  "ys": 940,
  "000": 941,
  "gan": 942,
  "ars": 943,
  "li": 944,
  "stem": 945,
  " prov": 946,
  " still": 947,
  "roup": 948,
  " while": 949,
  "illion": 950,
  " help": 951,
  " lead": 952,
  " min": 953,
  "ween": 954,
  "ef": 955,
  "ax": 956,
  "ank": 957,
  "alk": 958,
  "imes": 959,
  " says": 960,
  " ob": 961,
  "ms": 962,
  "cy": 963,
  " produ": 964,
  " gr": 965,
  " inter": 966,
  " inst": 967,
  " str": 968,
  "cess": 969,
  " sim": 970,
  "io": 971,
  "self": 972,
  " conf": 973,
  " col": 974,
  " take": 975,
  "ures": 976,
  "arch": 977,
  " same": 978,
  " though": 979,
  " between": 980,
  "ollow": 981,
  " offic": 982,
  "ever": 983,
  " cr": 984,
  " differe": 985,
  "ool": 986,
  "uss": 987,
  "ution": 988,
  "land": 989,
  " disc": 990,
  "air": 991,
  " op": 992,
  "ah": 993,
  " ed": 994,
  " high": 995,
  "read": 996,
  " num": 997,
  " law": 998,
  " sign": 999,
  "way": 1000,
  " government": 1001,
  "gg": 1002,
  " Re": 1003,
  "led": 1004,
  "ner": 1005,
  "hip": 1006,
  "atch": 1007,
  "hes": 1008,
  "ames": 1009,
  "any": 1010,
  " ter": 1011,
  " somet": 1012,
  "cent": 1013,
  "velop": 1014,
  "ted": 1015,
  "We": 1016,
  " ref": 1017,
  " trans": 1018,
  "ten": 1019,
  " ins": 1020,
  " run": 1021,
  " ser": 1022,
  " found": 1023,
  " three": 1024,
  "ives": 1025,
  " mem": 1026,
  "ave": 1027,
  " around": 1028,
  " here": 1029,
  "ather": 1030,
  " med": 1031,
  " real": 1032,
  " used": 1033,
  "ouse": 1034,
  " 10": 1035,
  "ved": 1036,
  " exp": 1037,
  "az": 1038,
  " Ar": 1039,
  "cept": 1040,
  "oot": 1041,
  " system": 1042,
  " You": 1043,
  "ci": 1044,
  " really": 1045,
  " mod": 1046,
  "ving": 1047,
  "con": 1048,
  "cer": 1049,
  " group": 1050,
  " support": 1051,
  " 7": 1052,
  " cour": 1053,
  "ets": 1054,
  "ale": 1055,
  "ins": 1056,
  " ret": 1057,
  " hand": 1058,
  " public": 1059,
  " spec": 1060,
  "pr": 1061,
  " Le": 1062,
  "ying": 1063,
  " great": 1064,
  " car": 1065,
  ".[": 1066,
  "ense": 1067,
  " ext": 1068,
  "ton": 1069,
  "irect": 1070,
  " cur": 1071,
  " fam": 1072,
  " Com": 1073,
  "alth": 1074,
  " happ": 1075,
  " fact": 1076,
  "ph": 1077,
  " exper": 1078,
  " They": 1079,
  " Trump": 1080,
  " fr": 1081,
  " wom": 1082,
  " Is": 1083,
  " cap": 1084,
  " both": 1085,
  " day": 1086,
  " find": 1087,
  " Al": 1088,
  "ular": 1089,
  " read": 1090,
  "ines": 1091,
  "oh": 1092,
  "ices": 1093,
  " det": 1094,
  " lit": 1095,
  " sl": 1096,
  " rep": 1097,
  "uth": 1098,
  "ered": 1099,
  " during": 1100,
  " Sh": 1101,
  " As": 1102,
  " 0": 1103,
  " serv": 1104,
  " month": 1105,
  "min": 1106,
  "the": 1107,
  "ision": 1108,
  " cre": 1109,
  " develop": 1110,
  " big": 1111,
  " 8": 1112,
  " person": 1113,
  "akes": 1114,
  " follow": 1115,
  " Cl": 1116,
  " iss": 1117,
  "ex": 1118,
  " told": 1119,
  " since": 1120,
  "ared": 1121,
  "med": 1122,
  "ically": 1123,
  " week": 1124,
  "ages": 1125,
  "ivers": 1126,
  " war": 1127,
  " few": 1128,
  "orth": 1129,
  "ording": 1130,
  " cent": 1131,
  " leg": 1132,
  "aj": 1133,
  "get": 1134,
  " polit": 1135,
  "ves": 1136,
  "ash": 1137,
  " expl": 1138,
  " lot": 1139,
  "ric": 1140,
  " Se": 1141,
  " belie": 1142,
  " gener": 1143,
  " too": 1144,
  " 9": 1145,
  "der": 1146,
  "ata": 1147,
  "rent": 1148,
  " opp": 1149,
  "Wh": 1150,
  " requ": 1151,
  " contin": 1152,
  " prot": 1153,
  "iet": 1154,
  "bers": 1155,
  "anc": 1156,
  " fil": 1157,
  "ention": 1158,
  "ness": 1159,
  " cle": 1160,
  " resp": 1161,
  " put": 1162,
  "ized": 1163,
  " If": 1164,
  "20": 1165,
  " another": 1166,
  "chool": 1167,
  " inf": 1168,
  " something": 1169,
  " De": 1170,
  " different": 1171,
  " cor": 1172,
  " loc": 1173,
  "ute": 1174,
  " invest": 1175,
  " soc": 1176,
  " power": 1177,
  " che": 1178,
  "uc": 1179,
  " '": 1180,
  " pass": 1181,
  " commun": 1182,
  " life": 1183,
  " Fr": 1184,
  " plan": 1185,
  "ody": 1186,
  " rele": 1187,
  "ience": 1188,
  " head": 1189,
  " things": 1190,
  "ned": 1191,
  " far": 1192,
  " art": 1193,
  " poss": 1194,
  " met": 1195,
  "thing": 1196,
  "ox": 1197,
  "erest": 1198,
  " camp": 1199,
  "ross": 1200,
  "arge": 1201,
  " vot": 1202,
  "ier": 1203,
  "This": 1204,
  "view": 1205,
  " child": 1206,
  "ants": 1207,
  " ask": 1208,
  " .": 1209,
  " might": 1210,
  " each": 1211,
  "ize": 1212,
  "iness": 1213,
  " dep": 1214,
  " never": 1215,
  " next": 1216,
  "ik": 1217,
  "ield": 1218,
  " second": 1219,
  " mark": 1220,
  "tt": 1221,
  " quest": 1222,
  " bus": 1223,
  " adv": 1224,
  " An": 1225,
  " dem": 1226,
  " For": 1227,
  " come": 1228,
  " got": 1229,
  " ‘": 1230,
  " open": 1231,
  " best": 1232,
  "ient": 1233,
  "ital": 1234,
  " allow": 1235,
  " That": 1236,
  "rat": 1237,
  " seem": 1238,
  " post": 1239,
  "ple": 1240,
  "nce": 1241,
  " feel": 1242,
  " Pro": 1243,
  " US": 1244,
  "ug": 1245,
  " pri": 1246,
  "gram": 1247,
  " percent": 1248,
  "cl": 1249,
  " home": 1250,
  " dist": 1251,
  " direct": 1252,
  "ired": 1253,
  " incre": 1254,
  " contro": 1255,
  " Rep": 1256,
  "son": 1257,
  "orn": 1258,
  "less": 1259,
  "osed": 1260,
  " result": 1261,
  " hard": 1262,
  " care": 1263,
  "ately": 1264,
  " million": 1265,
  "chn": 1266,
  " comple": 1267,
  " place": 1268,
  " without": 1269,
  " inform": 1270,
  " including": 1271,
  " import": 1272,
  " av": 1273,
  "conom": 1274,
  " hum": 1275,
  " ide": 1276,
  " proble": 1277,
  " build": 1278,
  " top": 1279,
  "ama": 1280,
  " number": 1281,
  " country": 1282,
  "gy": 1283,
  "oney": 1284,
  "aim": 1285,
  " Bl": 1286,
  "ret": 1287,
  "ral": 1288,
  "ably": 1289,
  "uro": 1290,
  " stand": 1291,
  " gl": 1292,
  " el": 1293,
  "riend": 1294,
  " four": 1295,
  "ished": 1296,
  "ways": 1297,
  " partic": 1298,
  " better": 1299,
  "co": 1300,
  " tri": 1301,
  "But": 1302,
  " recent": 1303,
  " interest": 1304,
  " mov": 1305,
  " let": 1306,
  "ration": 1307,
  " season": 1308,
  " less": 1309,
  "ead": 1310,
  " turn": 1311,
  " little": 1312,
  " beh": 1313,
  " mil": 1314,
  " appro": 1315,
  "ract": 1316,
  "line": 1317,
  " bro": 1318,
  "ling": 1319,
  "ised": 1320,
  " called": 1321,
  "app": 1322,
  "10": 1323,
  " case": 1324,
  " dr": 1325,
  " Ind": 1326,
  " rest": 1327,
  " left": 1328,
  " pop": 1329,
  " ann": 1330,
  " Z": 1331,
  "ency": 1332,
  " move": 1333,
  "ode": 1334,
  "ina": 1335,
  " attack": 1336,
  " There": 1337,
  " keep": 1338,
  " full": 1339,
  "ering": 1340,
  " didn": 1341,
  "be": 1342,
  " fun": 1343,
  " main": 1344,
  "ajor": 1345,
  "__": 1346,
  " effect": 1347,
  "inal": 1348,
  "me": 1349,
  "leg": 1350,
  " prev": 1351,
  " program": 1352,
  " using": 1353,
  " test": 1354,
  " pay": 1355,
  "to": 1356,
  "ature": 1357,
  " ear": 1358,
  " val": 1359,
  " police": 1360,
  " writ": 1361,
  " form": 1362,
  " econom": 1363,
  " data": 1364,
  " news": 1365,
  " pos": 1366,
  " win": 1367,
  " American": 1368,
  " level": 1369,
  " sit": 1370,
  " char": 1371,
  "ains": 1372,
  "iving": 1373,
  "uck": 1374,
  " small": 1375,
  "ined": 1376,
  "ready": 1377,
  "He": 1378,
  " school": 1379,
  " list": 1380,
  "ology": 1381,
  "rap": 1382,
  "mit": 1383,
  "ided": 1384,
  "ploy": 1385,
  "'re": 1386,
  "ger": 1387,
  " eas": 1388,
  " process": 1389,
  "ird": 1390,
  " change": 1391,
  " women": 1392,
  " current": 1393,
  " rece": 1394,
  " prom": 1395,
  " hist": 1396,
  " dri": 1397,
  " =": 1398,
  "ians": 1399,
  "reen": 1400,
  " president": 1401,
  " company": 1402,
  " So": 1403,
  "used": 1404,
  " mat": 1405,
  "ruct": 1406,
  " already": 1407,
  "ohn": 1408,
  " United": 1409,
  "wit": 1410,
  " ty": 1411,
  " why": 1412,
  " bre": 1413,
  " unt": 1414,
  " money": 1415,
  " sol": 1416,
  " always": 1417,
  " later": 1418,
  " expect": 1419,
  " techn": 1420,
  " business": 1421,
  " How": 1422,
  " official": 1423,
  "ron": 1424,
  " Q": 1425,
  " Ob": 1426,
  "stand": 1427,
  "iversity": 1428,
  " bo": 1429,
  " book": 1430,
  " Ph": 1431,
  "aign": 1432,
  " thing": 1433,
  " class": 1434,
  " project": 1435,
  "ases": 1436,
  " claim": 1437,
  " job": 1438,
  " information": 1439,
  " organ": 1440,
  "aff": 1441,
  " She": 1442,
  "ards": 1443,
  " talk": 1444,
  " Be": 1445,
  " design": 1446,
  " story": 1447,
  " chang": 1448,
  " major": 1449,
  " able": 1450,
  " prof": 1451,
  " --": 1452,
  "lection": 1453,
  "...": 1454,
  "iven": 1455,
  "ertain": 1456,
  " rese": 1457,
  " health": 1458,
  " vis": 1459,
  " past": 1460,
  "urs": 1461,
  " free": 1462,
  "here": 1463,
  "outh": 1464,
  " Ad": 1465,
  " oper": 1466,
  "ption": 1467,
  " away": 1468,
  "ior": 1469,
  " Can": 1470,
  " must": 1471,
  " city": 1472,
  "ample": 1473,
  "rist": 1474,
  "sc": 1475,
  "ural": 1476,
  " happen": 1477,
  "uthor": 1478,
  " 18": 1479,
  " important": 1480,
  "acy": 1481,
  "urity": 1482,
  " kill": 1483,
  " sk": 1484,
  " est": 1485,
  "ured": 1486,
  " old": 1487,
  " pat": 1488,
  "ury": 1489,
  "ending": 1490,
  " doesn": 1491,
  "ission": 1492,
  " least": 1493,
  " grow": 1494,
  " edit": 1495,
  " var": 1496,
  "ained": 1497,
  "St": 1498,
  " cost": 1499,
  " Go": 1500,
  "ney": 1501,
  "ider": 1502,
  "ides": 1503,
  "els": 1504,
  " days": 1505,
  " tell": 1506,
  " hop": 1507,
  " stre": 1508,
  " campaign": 1509,
  "side": 1510,
  " 12": 1511,
  " men": 1512,
  " came": 1513,
  " aff": 1514,
  " const": 1515,
  "resident": 1516,
  " enough": 1517,
  " view": 1518,
  "ccess": 1519,
  " kind": 1520,
  " Mar": 1521,
  "oad": 1522,
  " Sp": 1523,
  "ern": 1524,
  " making": 1525,
  " large": 1526,
  " record": 1527,
  "50": 1528,
  "ush": 1529,
  " friend": 1530,
  " mar": 1531,
  " family": 1532,
  "…": 1533,
  "ley": 1534,
  " elect": 1535,
  "eral": 1536,
  " polic": 1537,
  " tax": 1538,
  "ising": 1539,
  "pped": 1540,
  "by": 1541,
  "ality": 1542,
  "ator": 1543,
  "ified": 1544,
  "As": 1545,
  "ived": 1546,
  "arent": 1547,
  "ror": 1548,
  " until": 1549,
  "ional": 1550,
  " political": 1551,
  " vide": 1552,
  " deal": 1553,
  "ee": 1554,
  "ries": 1555,
  "alf": 1556,
  "augh": 1557,
  " ve": 1558,
  " working": 1559,
  "ued": 1560,
  " Republic": 1561,
  " took": 1562,
  " deb": 1563,
  "bs": 1564,
  "If": 1565,
  "ister": 1566,
  " line": 1567,
  " John": 1568,
  "aining": 1569,
  " air": 1570,
  "----": 1571,
  " es": 1572,
  " intern": 1573,
  " fore": 1574,
  "iol": 1575,
  "ane": 1576,
  "ocrat": 1577,
  " become": 1578,
  " actually": 1579,
  "aps": 1580,
  "ony": 1581,
  " mean": 1582,
  "work": 1583,
  " fund": 1584,
  " Sc": 1585,
  "ware": 1586,
  "19": 1587,
  "ember": 1588,
  " Pl": 1589,
  " former": 1590,
  " often": 1591,
  " Euro": 1592,
  "ott": 1593,
  "ann": 1594,
  " won": 1595,
  " give": 1596,
  "oint": 1597,
  " according": 1598,
  " ever": 1599,
  "most": 1600,
  "eng": 1601,
  "year": 1602,
  "wh": 1603,
  "aring": 1604,
  " games": 1605,
  "ison": 1606,
  " human": 1607,
  " bas": 1608,
  " word": 1609,
  "ization": 1610,
  " return": 1611,
  " times": 1612,
  " order": 1613,
  " Russ": 1614,
  " bit": 1615,
  " Dem": 1616,
  " name": 1617,
  "11": 1618,
  "gin": 1619,
  " sever": 1620,
  " All": 1621,
  " dev": 1622,
  "icle": 1623,
  "uture": 1624,
  "for": 1625,
  "ither": 1626,
  "iqu": 1627,
  " par": 1628,
  " 199": 1629,
  " Mc": 1630,
  " wr": 1631,
  " Con": 1632,
  "raft": 1633,
  " sing": 1634,
  " perform": 1635,
  " Sy": 1636,
  "idd": 1637,
  " market": 1638,
  " fac": 1639,
  " charac": 1640,
  "There": 1641,
  " Or": 1642,
  " At": 1643,
  " May": 1644,
  " ra": 1645,
  " doing": 1646,
  " appear": 1647,
  "ER": 1648,
  "ched": 1649,
  " players": 1650,
  " la": 1651,
  " night": 1652,
  " lear": 1653,
  "aken": 1654,
  "rop": 1655,
  "ats": 1656,
  "mber": 1657,
  " today": 1658,
  " early": 1659,
  " 15": 1660,
  " seen": 1661,
  "//": 1662,
  " having": 1663,
  " ,": 1664,
  " pot": 1665,
  " children": 1666,
  " event": 1667,
  " media": 1668,
  " social": 1669,
  " crit": 1670,
  " President": 1671,
  " whether": 1672,
  " several": 1673,
  " control": 1674,
  "idence": 1675,
  " meet": 1676,
  "sh": 1677,
  " milit": 1678,
  " press": 1679,
  " went": 1680,
  "artment": 1681,
  "ene": 1682,
  " five": 1683,
  " young": 1684,
  "ories": 1685,
  " sure": 1686,
  " prop": 1687,
  "iously": 1688,
  " equ": 1689,
  " question": 1690,
  " occ": 1691,
  " likely": 1692,
  "vert": 1693,
  "une": 1694,
  " members": 1695,
  "br": 1696,
  "ands": 1697,
  " certain": 1698,
  "ium": 1699,
  " eng": 1700,
  " water": 1701,
  " York": 1702,
  " example": 1703,
  "ots": 1704,
  " Col": 1705,
  " side": 1706,
  " ant": 1707,
  " arg": 1708,
  " done": 1709,
  "enn": 1710,
  " vers": 1711,
  " invol": 1712,
  " Mr": 1713,
  " States": 1714,
  " Europe": 1715,
  "ended": 1716,
  "let": 1717,
  " along": 1718,
  " short": 1719,
  " success": 1720,
  "ential": 1721,
  " months": 1722,
  "ball": 1723,
  " hour": 1724,
  " 11": 1725,
  " sex": 1726,
  "iver": 1727,
  "ially": 1728,
  "And": 1729,
  "lf": 1730,
  "empt": 1731,
  " within": 1732,
  " desc": 1733,
  "imate": 1734,
  " course": 1735,
  " fight": 1736,
  "ster": 1737,
  "urch": 1738,
  "ubl": 1739,
  " among": 1740,
  " activ": 1741,
  "uff": 1742,
  "–": 1743,
  "ague": 1744,
  " once": 1745,
  " future": 1746,
  " investig": 1747,
  "ulation": 1748,
  "rew": 1749,
  " possible": 1750,
  " Obama": 1751,
  " cho": 1752,
  "nect": 1753,
  " understand": 1754,
  "iting": 1755,
  " concer": 1756,
  " On": 1757,
  " ]": 1758,
  "ones": 1759,
  "ortun": 1760,
  " problem": 1761,
  " Br": 1762,
  " priv": 1763,
  " means": 1764,
  " viol": 1765,
  " Car": 1766,
  " author": 1767,
  "itive": 1768,
  " No": 1769,
  "ggest": 1770,
  " avail": 1771,
  "oci": 1772,
  "ourn": 1773,
  "my": 1774,
  " known": 1775,
  " product": 1776,
  " non": 1777,
  "ivid": 1778,
  " thought": 1779,
  " yet": 1780,
  "gress": 1781,
  " across": 1782,
  " protect": 1783,
  " local": 1784,
  "ald": 1785,
  "ler": 1786,
  " hold": 1787,
  " Te": 1788,
  " fail": 1789,
  " When": 1790,
  " State": 1791,
  "inc": 1792,
  " community": 1793,
  " reason": 1794,
  " orig": 1795,
  " suggest": 1796,
  " &": 1797,
  "12": 1798,
  " makes": 1799,
  "verage": 1800,
  "not": 1801,
  "por": 1802,
  "back": 1803,
  " 2016": 1804,
  " i": 1805,
  "book": 1806,
  " asked": 1807,
  "ederal": 1808,
  "orld": 1809,
  " reported": 1810,
  "You": 1811,
  "aged": 1812,
  "ensive": 1813,
  " given": 1814,
  " strong": 1815,
  " prob": 1816,
  " mus": 1817,
  " others": 1818,
  " believe": 1819,
  " video": 1820,
  "iber": 1821,
  " ben": 1822,
  " getting": 1823,
  " House": 1824,
  "ances": 1825,
  " announ": 1826,
  " light": 1827,
  "ored": 1828,
  "ober": 1829,
  " University": 1830,
  " 30": 1831,
  " Co": 1832,
  "itions": 1833,
  " ident": 1834,
  "iron": 1835,
  " sent": 1836,
  " cut": 1837,
  " lim": 1838,
  " ca": 1839,
  " Christ": 1840,
  "iety": 1841,
  "30": 1842,
  "urther": 1843,
  " sour": 1844,
  " creat": 1845,
  " cond": 1846,
  " X": 1847,
  "rest": 1848,
  "ams": 1849,
  "'ve": 1850,
  " net": 1851,
  "ashing": 1852,
  " bat": 1853,
  "ament": 1854,
  " national": 1855,
  ".,": 1856,
  " close": 1857,
  " started": 1858,
  " saf": 1859,
  " death": 1860,
  "aster": 1861,
  " available": 1862,
  "arm": 1863,
  " hig": 1864,
  "For": 1865,
  " based": 1866,
  " issue": 1867,
  "of": 1868,
  " indust": 1869,
  " Democrat": 1870,
  " Min": 1871,
  " low": 1872,
  " following": 1873,
  "resent": 1874,
  " account": 1875,
  " land": 1876,
  "use": 1877,
  " Cent": 1878,
  " employ": 1879,
  " love": 1880,
  " 2015": 1881,
  " #": 1882,
  " history": 1883,
  " ago": 1884,
  "orts": 1885,
  "selves": 1886,
  " mom": 1887,
  " party": 1888,
  "ability": 1889,
  " series": 1890,
  "eb": 1891,
  " comes": 1892,
  " trying": 1893,
  "uly": 1894,
  "utes": 1895,
  " Am": 1896,
  " almost": 1897,
  "gether": 1898,
  "ument": 1899,
  " together": 1900,
  "ination": 1901,
  "AT": 1902,
  " America": 1903,
  "pro": 1904,
  " idea": 1905,
  "ief": 1906,
  " access": 1907,
  " foc": 1908,
  "hers": 1909,
  "ilar": 1910,
  " Fl": 1911,
  "reed": 1912,
  "ails": 1913,
  " commit": 1914,
  "itional": 1915,
  " isn": 1916,
  " Sen": 1917,
  " clear": 1918,
  " 16": 1919,
  " One": 1920,
  " trad": 1921,
  "though": 1922,
  "ring": 1923,
  " What": 1924,
  " pract": 1925,
  " added": 1926,
  " impro": 1927,
  " experience": 1928,
  "erence": 1929,
  " film": 1930,
  "15": 1931,
  " half": 1932,
  "ustom": 1933,
  "ged": 1934,
  " hit": 1935,
  "af": 1936,
  " Bro": 1937,
  "witter": 1938,
  "rict": 1939,
  " anal": 1940,
  "inton": 1941,
  "ograp": 1942,
  "unch": 1943,
  " 2014": 1944,
  " rul": 1945,
  "ividual": 1946,
  " looking": 1947,
  " six": 1948,
  " live": 1949,
  " anything": 1950,
  " area": 1951,
  " complete": 1952,
  "erman": 1953,
  "minist": 1954,
  " miss": 1955,
  "rael": 1956,
  " Ex": 1957,
  " Comm": 1958,
  " fav": 1959,
  " ris": 1960,
  "ai": 1961,
  "nes": 1962,
  " present": 1963,
  "ote": 1964,
  "rug": 1965,
  " saying": 1966,
  "raw": 1967,
  "aid": 1968,
  " Canad": 1969,
  " vict": 1970,
  "IN": 1971,
  "cially": 1972,
  " bad": 1973,
  "ows": 1974,
  "uge": 1975,
  " taken": 1976,
  "ert": 1977,
  " entire": 1978,
  "oto": 1979,
  " Pr": 1980,
  "ators": 1981,
  "ev": 1982,
  " bill": 1983,
  " compet": 1984,
  " Eng": 1985,
  " mor": 1986,
  " behind": 1987,
  "ien": 1988,
  " aut": 1989,
  " To": 1990,
  "'m": 1991,
  " court": 1992,
  "play": 1993,
  " try": 1994,
  " tre": 1995,
  " military": 1996,
  " z": 1997,
  " near": 1998,
  "osp": 1999,
  " mult": 2000,
  "What": 2001,
  " face": 2002,
  "wards": 2003,
  " 14": 2004,
  " security": 2005,
  " er": 2006,
  " Pol": 2007,
  "sy": 2008,
  " proper": 2009,
  " discuss": 2010,
  " threat": 2011,
  " tot": 2012,
  " study": 2013,
  " single": 2014,
  " rather": 2015,
  " individual": 2016,
  " Af": 2017,
  " Brit": 2018,
  " War": 2019,
  "ttp": 2021,
  " quick": 2022,
  " Don": 2023,
  " mind": 2024,
  " Sec": 2025,
  "lement": 2026,
  "ales": 2027,
  "amed": 2028,
  "atic": 2029,
  "An": 2030,
  " North": 2031,
  "aper": 2032,
  " publ": 2033,
  " policy": 2034,
  " mess": 2035,
  "ris": 2036,
  "par": 2037,
  " black": 2038,
  " wanted": 2039,
  " fall": 2040,
  "irc": 2041,
  "**": 2042,
  "off": 2043,
  " food": 2044,
  " sum": 2045,
  " someone": 2046,
  "lling": 2047,
  "ids": 2048,
  "On": 2049,
  " |": 2050,
  " /": 2051,
  " cult": 2052,
  " special": 2053,
  " comb": 2054,
  " key": 2055,
  " Man": 2056,
  " player": 2057,
  " redu": 2058,
  " Gr": 2059,
  " bring": 2060,
  " 13": 2061,
  " compan": 2062,
  " 17": 2063,
  "ply": 2064,
  " Dep": 2065,
  " attempt": 2066,
  " National": 2067,
  " taking": 2068,
  " Bar": 2069,
  "When": 2070,
  "ON": 2071,
  "ify": 2072,
  "olution": 2073,
  " :": 2074,
  "viron": 2075,
  " foot": 2076,
  " Cal": 2077,
  "://": 2078,
  " else": 2079,
  " pret": 2080,
  " body": 2081,
  " space": 2082,
  "elt": 2083,
  "rote": 2084,
  "over": 2085,
  "dd": 2086,
  " probably": 2087,
  "16": 2088,
  "icult": 2089,
  ".)": 2090,
  " front": 2091,
  " cou": 2092,
  " nothing": 2093,
  " sw": 2094,
  "ashington": 2095,
  " Im": 2096,
  " connect": 2097,
  "ches": 2098,
  " World": 2099,
  " research": 2100,
  "14": 2101,
  "ming": 2102,
  " Clinton": 2103,
  " City": 2104,
  " coming": 2105,
  " points": 2106,
  " Israel": 2107,
  "RE": 2108,
  " however": 2109,
  " describ": 2110,
  "go": 2111,
  " jo": 2112,
  " signific": 2113,
  " similar": 2114,
  "yn": 2115,
  "reme": 2116,
  "cing": 2117,
  " benef": 2118,
  "lier": 2119,
  " Aust": 2120,
  " decision": 2121,
  " either": 2122,
  "aces": 2123,
  " coun": 2124,
  "ault": 2125,
  "So": 2126,
  " mass": 2127,
  "mb": 2128,
  " Har": 2129,
  " sus": 2130,
  " targ": 2131,
  "ully": 2132,
  "ana": 2133,
  " feat": 2134,
  "That": 2135,
  " imm": 2136,
  " conv": 2137,
  " exist": 2138,
  "irl": 2139,
  " enc": 2140,
  " 2013": 2141,
  " rights": 2142,
  " service": 2143,
  " Su": 2144,
  "asing": 2145,
  "ung": 2146,
  "sw": 2147,
  "IS": 2148,
  " fire": 2149,
  " doc": 2150,
  " wrote": 2151,
  " further": 2152,
  " house": 2153,
  "rodu": 2154,
  " fig": 2155,
  " chall": 2156,
  " ban": 2157,
  "ww": 2158,
  " third": 2159,
  " wa": 2160,
  " create": 2161,
  " stop": 2162,
  "AN": 2163,
  " field": 2164,
  "now": 2165,
  " pick": 2166,
  "ape": 2167,
  "ively": 2168,
  " meas": 2169,
  " repl": 2170,
  " compl": 2171,
  " With": 2172,
  " issues": 2173,
  "pping": 2174,
  " begin": 2175,
  " super": 2176,
  "amer": 2177,
  " step": 2178,
  "ried": 2179,
  "ently": 2180,
  " whole": 2181,
  " relations": 2182,
  " seems": 2183,
  " )": 2184,
  " companies": 2185,
  "pecially": 2186,
  " due": 2187,
  " exec": 2188,
  " cand": 2189,
  " everything": 2190,
  " federal": 2191,
  " Gu": 2192,
  " states": 2193,
  " ey": 2194,
  " room": 2195,
  "aul": 2196,
  " tra": 2197,
  " watch": 2198,
  "oon": 2199,
  " Ge": 2200,
  " custom": 2201,
  " leaders": 2202,
  "13": 2203,
  "uation": 2204,
  " However": 2205,
  "pite": 2206,
  " Jan": 2207,
  " Washington": 2208,
  "Ch": 2209,
  "lam": 2210,
  " self": 2211,
  " role": 2212,
  "ran": 2213,
  "ilt": 2214,
  " sound": 2215,
  " lab": 2216,
  "att": 2217,
  "head": 2218,
  " dam": 2219,
  "ivil": 2220,
  " officials": 2221,
  " stri": 2222,
  " 2012": 2223,
  "lu": 2224,
  "iday": 2225,
  "ibility": 2226,
  " released": 2227,
  " Inst": 2228,
  "eal": 2229,
  " began": 2230,
  " Dav": 2231,
  " App": 2232,
  " South": 2233,
  " opt": 2234,
  "obal": 2235,
  " students": 2236,
  " treat": 2237,
  " final": 2238,
  " character": 2239,
  " position": 2240,
  " matter": 2241,
  "é": 2242,
  "ender": 2243,
  " ener": 2244,
  "lim": 2245,
  " outside": 2246,
  "ery": 2247,
  "sec": 2248,
  "ades": 2249,
  " dou": 2250,
  "vironment": 2251,
  " development": 2252,
  " statement": 2253,
  " himself": 2254,
  " 2017": 2255,
  " above": 2256,
  "like": 2257,
  " stat": 2258,
  " init": 2259,
  " break": 2260,
  " 100": 2261,
  " amount": 2262,
  " provide": 2263,
  " hours": 2264,
  " itself": 2265,
  " themselves": 2266,
  " office": 2267,
  " represent": 2268,
  " action": 2269,
  " Part": 2270,
  " di": 2271,
  " became": 2272,
  " 198": 2273,
  " general": 2274,
  " continue": 2275,
  " countries": 2276,
  " Intern": 2277,
  " neg": 2278,
  "iod": 2279,
  " address": 2280,
  " 25": 2281,
  " gun": 2282,
  "aced": 2283,
  "ask": 2284,
  " true": 2285,
  " specific": 2286,
  "ograph": 2287,
  "umb": 2288,
  "arter": 2289,
  "reg": 2290,
  " larg": 2291,
  " significant": 2292,
  "lish": 2293,
  " simply": 2294,
  " Ass": 2295,
  " Res": 2296,
  " wasn": 2297,
  "'ll": 2298,
  " interview": 2299,
  "acebook": 2300,
  "ili": 2301,
  " ground": 2302,
  " rad": 2303,
  "oid": 2304,
  "ogn": 2305,
  " difficult": 2306,
  " running": 2307,
  " Just": 2308,
  " evidence": 2309,
  " administ": 2310,
  "BC": 2311,
  " cop": 2312,
  "17": 2313,
  "ream": 2314,
  " drug": 2315,
  " version": 2316,
  "ogle": 2317,
  " bar": 2318,
  " Ed": 2319,
  " agree": 2320,
  "eks": 2321,
  "iddle": 2322,
  " building": 2323,
  " China": 2324,
  " needs": 2325,
  " profess": 2326,
  "angu": 2327,
  " groups": 2328,
  "right": 2329,
  " typ": 2330,
  " respons": 2331,
  " common": 2332,
  " shows": 2333,
  " everyone": 2334,
  " dom": 2335,
  " dest": 2336,
  " needed": 2337,
  " ball": 2338,
  " woman": 2339,
  " German": 2340,
  " lat": 2341,
  " below": 2342,
  " tem": 2343,
  "light": 2344,
  "ournal": 2345,
  " music": 2346,
  " exc": 2347,
  " release": 2348,
  "ift": 2349,
  " inj": 2350,
  " pretty": 2351,
  " Med": 2352,
  " Ab": 2353,
  "AR": 2354,
  "ribut": 2355,
  " include": 2356,
  " saw": 2357,
  " deep": 2358,
  " ap": 2359,
  "body": 2360,
  "18": 2361,
  " played": 2362,
  " quite": 2363,
  " industry": 2364,
  " charg": 2365,
  " mag": 2366,
  " energy": 2367,
  " playing": 2368,
  " mot": 2369,
  " 50": 2370,
  " candid": 2371,
  " sense": 2372,
  " phys": 2373,
  " late": 2374,
  " alleg": 2375,
  " white": 2376,
  " His": 2377,
  "ival": 2378,
  " friends": 2379,
  " gen": 2380,
  " legal": 2381,
  "atur": 2382,
  " anim": 2383,
  "isc": 2384,
  "bo": 2385,
  "yle": 2386,
  " After": 2387,
  "How": 2388,
  "AS": 2389,
  "where": 2390,
  " abs": 2391,
  "lev": 2392,
  " instead": 2393,
  " red": 2394,
  " billion": 2395,
  " lost": 2396,
  " especially": 2397,
  " value": 2398,
  " Mus": 2399,
  " West": 2400,
  " host": 2401,
  " hom": 2402,
  "osing": 2403,
  "oring": 2404,
  " News": 2405,
  "ager": 2406,
  "time": 2407,
  " ple": 2408,
  "istic": 2409,
  " weeks": 2410,
  "epend": 2411,
  " Not": 2412,
  "ccording": 2413,
  "omm": 2414,
  " forward": 2415,
  "ique": 2416,
  " deter": 2417,
  " election": 2418,
  " recently": 2419,
  " jud": 2420,
  " track": 2421,
  " suff": 2422,
  " vote": 2423,
  " Twitter": 2424,
  " object": 2425,
  "irt": 2426,
  "lt": 2427,
  "medi": 2428,
  " period": 2429,
  " changes": 2430,
  " opportun": 2431,
  " White": 2432,
  " Oct": 2433,
  " lo": 2434,
  " longer": 2435,
  "arc": 2436,
  "oke": 2437,
  "eed": 2438,
  " ep": 2439,
  " pain": 2440,
  " soon": 2441,
  " site": 2442,
  " {": 2443,
  "hod": 2444,
  "ript": 2445,
  "ached": 2446,
  " accept": 2447,
  " Cong": 2448,
  "____": 2449,
  " shoot": 2450,
  " economic": 2451,
  " hope": 2452,
  "irm": 2453,
  "oe": 2454,
  " moment": 2455,
  " decl": 2456,
  "lege": 2457,
  " consum": 2458,
  " Will": 2459,
  " pie": 2460,
  " tit": 2461,
  " check": 2462,
  "oph": 2463,
  " potential": 2464,
  "ij": 2465,
  " block": 2466,
  " March": 2467,
  "ole": 2468,
  " wrong": 2469,
  "duct": 2470,
  "ners": 2471,
  " Sept": 2472,
  " Department": 2473,
  " higher": 2474,
  "onse": 2475,
  " cred": 2476,
  " online": 2477,
  " focus": 2478,
  " 24": 2479,
  " consider": 2480,
  "key": 2481,
  " educ": 2482,
  "ancial": 2483,
  " My": 2484,
  "ns": 2485,
  "iding": 2486,
  " circ": 2487,
  " works": 2488,
  " relig": 2489,
  " share": 2490,
  " parent": 2491,
  "cial": 2492,
  " held": 2493,
  "25": 2494,
  " pred": 2495,
  " Dr": 2496,
  " walk": 2497,
  " webs": 2498,
  " led": 2499,
  "ularly": 2500,
  "==": 2501,
  " reve": 2502,
  "lear": 2503,
  " stay": 2504,
  " These": 2505,
  "overed": 2506,
  "alt": 2507,
  " stru": 2508,
  " Republican": 2509,
  " risk": 2510,
  " words": 2511,
  " Aug": 2512,
  " rev": 2513,
  " sold": 2514,
  " review": 2515,
  "icro": 2516,
  " contract": 2517,
  " results": 2518,
  " services": 2519,
  " laws": 2520,
  "They": 2521,
  " code": 2522,
  "cil": 2523,
  " Mich": 2524,
  " wind": 2525,
  " function": 2526,
  " aud": 2527,
  " ce": 2528,
  " Syri": 2529,
  "put": 2530,
  "aut": 2531,
  " total": 2532,
  "fect": 2533,
  " article": 2534,
  " age": 2535,
  " applic": 2536,
  " minutes": 2537,
  "urd": 2538,
  " Me": 2539,
  " personal": 2540,
  "ilities": 2541,
  " anyone": 2542,
  "uary": 2543,
  "ients": 2544,
  "itution": 2545,
  "asons": 2546,
  " June": 2547,
  "Ad": 2548,
  "ateg": 2549,
  " prim": 2550,
  "anger": 2551,
  " target": 2552,
  " Ste": 2553,
  "fer": 2554,
  " den": 2555,
  " earlier": 2556,
  "ule": 2557,
  " favor": 2558,
  " express": 2559,
  "haps": 2560,
  " dead": 2561,
  " answ": 2562,
  " upd": 2563,
  " popular": 2564,
  "che": 2565,
  " comput": 2566,
  " vol": 2567,
  "pril": 2568,
  " necess": 2569,
  "ham": 2570,
  " hy": 2571,
  " rate": 2572,
  "ES": 2573,
  "aging": 2574,
  " technology": 2575,
  "apan": 2576,
  " respect": 2577,
  " Pe": 2578,
  "val": 2579,
  " environment": 2580,
  " 2011": 2581,
  "Ph": 2582,
  " received": 2583,
  " expected": 2584,
  "ude": 2585,
  "ends": 2586,
  " goal": 2587,
  " Par": 2588,
  " created": 2589,
  " base": 2590,
  " surpr": 2591,
  " anti": 2592,
  " Sm": 2593,
  " July": 2594,
  "eter": 2595,
  "tee": 2596,
  " problems": 2597,
  "uel": 2598,
  " ways": 2599,
  " port": 2600,
  "iple": 2601,
  "action": 2602,
  " private": 2603,
  " Do": 2604,
  " scient": 2605,
  " increase": 2606,
  "ray": 2607,
  "reet": 2608,
  " announced": 2609,
  " comment": 2610,
  "isl": 2611,
  " cannot": 2612,
  " easy": 2613,
  "Al": 2614,
  " shot": 2615,
  " Congress": 2616,
  " questions": 2617,
  "bit": 2618,
  " force": 2619,
  "aterial": 2620,
  "hern": 2621,
  " impact": 2622,
  "na": 2623,
  " et": 2624,
  " Mond": 2625,
  "ples": 2626,
  " pack": 2627,
  " +": 2628,
  " Facebook": 2629,
  " pur": 2630,
  " langu": 2631,
  "atives": 2632,
  " God": 2633,
  " En": 2634,
  " involved": 2635,
  "omb": 2636,
  "aving": 2637,
  "ills": 2638,
  "60": 2639,
  "lex": 2640,
  "hood": 2641,
  "onst": 2642,
  " Austral": 2643,
  " div": 2644,
  "uesday": 2645,
  " execut": 2646,
  "ctor": 2647,
  " model": 2648,
  "itiz": 2649,
  " sen": 2650,
  " speak": 2651,
  " staff": 2652,
  " exact": 2653,
  " civil": 2654,
  "ires": 2655,
  " nearly": 2656,
  " type": 2657,
  "ourt": 2658,
  "okes": 2659,
  "ees": 2660,
  " original": 2661,
  " cases": 2662,
  " content": 2663,
  " 197": 2664,
  " relationship": 2665,
  " terror": 2666,
  " Google": 2667,
  "To": 2668,
  " leave": 2669,
  " Friday": 2670,
  " response": 2671,
  " capt": 2672,
  " inside": 2673,
  " <": 2674,
  " phot": 2675,
  "lled": 2676,
  "ech": 2677,
  " fans": 2678,
  " April": 2679,
  "rem": 2680,
  " Red": 2681,
  " international": 2682,
  " coll": 2683,
  "cast": 2684,
  " heart": 2685,
  " average": 2686,
  " broad": 2687,
  " arrest": 2688,
  " users": 2689,
  " Count": 2690,
  " cal": 2691,
  "At": 2692,
  "rel": 2693,
  " cell": 2694,
  " worth": 2695,
  " soft": 2696,
  " ur": 2697,
  " living": 2698,
  " Em": 2699,
  "bor": 2700,
  " nation": 2701,
  "ips": 2702,
  "ky": 2703,
  " killed": 2704,
  " reports": 2705,
  " 2010": 2706,
  "ging": 2708,
  " becom": 2709,
  " source": 2710,
  " Monday": 2711,
  " Tuesday": 2712,
  " subject": 2713,
  " worked": 2714,
  "atural": 2715,
  "ests": 2716,
  " estab": 2717,
  " immedi": 2718,
  "EN": 2719,
  " respond": 2720,
  " global": 2721,
  " associ": 2722,
  "joy": 2723,
  "ellig": 2724,
  " club": 2725,
  "ops": 2726,
  " Americans": 2727,
  "ael": 2728,
  " obs": 2729,
  "ites": 2730,
  " Per": 2731,
  " Pal": 2732,
  " chance": 2733,
  " oil": 2734,
  " Act": 2735,
  " ability": 2736,
  " Ne": 2737,
  " takes": 2738,
  "rought": 2739,
  " weap": 2740,
  "hel": 2741,
  " price": 2742,
  " Japan": 2743,
  "ological": 2744,
  " director": 2745,
  "izing": 2746,
  " workers": 2747,
  " terms": 2748,
  " road": 2749,
  "mon": 2750,
  " published": 2751,
  " del": 2752,
  " While": 2753,
  " tou": 2754,
  " phone": 2755,
  "rain": 2756,
  " collect": 2757,
  " financial": 2758,
  " mid": 2759,
  "osition": 2760,
  " decided": 2761,
  "OR": 2762,
  "ises": 2763,
  " Russia": 2764,
  " Some": 2765,
  " Wed": 2766,
  " mother": 2767,
  " squ": 2768,
  " lack": 2769,
  " defin": 2770,
  "ovember": 2771,
  " 40": 2772,
  " girl": 2773,
  " store": 2774,
  " gave": 2775,
  " buy": 2776,
  " influ": 2777,
  " Calif": 2778,
  " log": 2779,
  " happened": 2780,
  "ino": 2781,
  " require": 2782,
  " Now": 2783,
  " emer": 2784,
  " fem": 2785,
  "\".": 2786,
  " capital": 2787,
  "clus": 2788,
  " foreign": 2789,
  " currently": 2790,
  " Off": 2791,
  "based": 2792,
  " San": 2793,
  " goes": 2794,
  " By": 2795,
  "oved": 2796,
  " Geor": 2797,
  "vertise": 2798,
  " situation": 2799,
  " indic": 2800,
  " offer": 2801,
  " whose": 2802,
  " @": 2803,
  " tal": 2804,
  " material": 2805,
  " lives": 2806,
  "unt": 2807,
  " affect": 2808,
  "rown": 2809,
  "ought": 2810,
  " plans": 2811,
  "nesday": 2812,
  " arri": 2813,
  " member": 2814,
  " pict": 2815,
  "ursday": 2816,
  " Feb": 2817,
  " particip": 2818,
  "ruction": 2819,
  " recogn": 2820,
  " turned": 2821,
  " method": 2822,
  " events": 2823,
  " January": 2824,
  " Hill": 2825,
  " network": 2826,
  "One": 2827,
  " teams": 2828,
  " Sund": 2829,
  " bank": 2830,
  " meeting": 2831,
  "40": 2832,
  "rect": 2833,
  " norm": 2834,
  " introdu": 2835,
  " simple": 2836,
  "fully": 2837,
  " Islam": 2838,
  " ill": 2839,
  " Ag": 2840,
  " huge": 2841,
  " September": 2842,
  "oud": 2843,
  " regard": 2844,
  " areas": 2845,
  " cy": 2846,
  "order": 2847,
  " Cor": 2848,
  "ese": 2849,
  " TV": 2850,
  " couple": 2851,
  " approach": 2852,
  " career": 2853,
  "aur": 2854,
  " Afric": 2855,
  " Gl": 2856,
  "load": 2857,
  "\",": 2858,
  " deli": 2859,
  " race": 2860,
  "lin": 2861,
  " performance": 2862,
  " page": 2863,
  "ety": 2864,
  "apt": 2865,
  " November": 2866,
  " tool": 2867,
  " David": 2868,
  " felt": 2869,
  " quickly": 2870,
  " mis": 2871,
  " numbers": 2872,
  "oor": 2873,
  " email": 2874,
  " 21": 2875,
  "aily": 2876,
  " ord": 2877,
  " El": 2878,
  "istan": 2879,
  " administration": 2880,
  " hon": 2881,
  " Wednesday": 2882,
  " victim": 2883,
  " Paul": 2884,
  " via": 2885,
  " improve": 2886,
  " engine": 2887,
  "chie": 2888,
  "--------": 2889,
  " fre": 2890,
  " pull": 2891,
  " Ang": 2892,
  " round": 2893,
  "bl": 2894,
  " built": 2895,
  " 22": 2896,
  " pers": 2897,
  " European": 2898,
  " dig": 2899,
  "ened": 2900,
  " Thursday": 2901,
  " father": 2902,
  "ornia": 2903,
  " loss": 2904,
  "avy": 2905,
  " thous": 2906,
  "­": 2907,
  " http": 2908,
  "ructure": 2909,
  " production": 2910,
  " boy": 2911,
  "ume": 2912,
  " heard": 2913,
  "down": 2914,
  "Sh": 2915,
  " economy": 2916,
  "”.": 2917,
  " enjoy": 2918,
  " August": 2919,
  " trade": 2920,
  " Sch": 2921,
  "face": 2922,
  " website": 2923,
  "iment": 2924,
  " secret": 2925,
  " cover": 2926,
  " reveal": 2927,
  " wide": 2928,
  " board": 2929,
  " match": 2930,
  "AL": 2931,
  " Court": 2932,
  " allowed": 2933,
  " hands": 2934,
  " spent": 2935,
  " travel": 2936,
  " lower": 2937,
  " repe": 2938,
  "atory": 2939,
  " poll": 2940,
  " ste": 2941,
  " included": 2942,
  "cember": 2943,
  " October": 2944,
  " neigh": 2945,
  " legisl": 2946,
  "orters": 2947,
  "uses": 2948,
  " behav": 2949,
  "iction": 2950,
  " knew": 2951,
  " text": 2952,
  " wants": 2953,
  " town": 2954,
  "ights": 2955,
  " British": 2956,
  " separ": 2957,
  "ences": 2958,
  "estern": 2959,
  " visit": 2960,
  " Canada": 2961,
  "anks": 2962,
  "ctions": 2963,
  "With": 2964,
  " perfect": 2965,
  " gets": 2966,
  "ze": 2967,
  "ession": 2968,
  " movement": 2969,
  "ishing": 2970,
  "ground": 2971,
  "agement": 2972,
  " tried": 2973,
  " cause": 2974,
  "?”": 2975,
  "gest": 2976,
  " }": 2977,
  " forces": 2978,
  " Sunday": 2979,
  " ens": 2980,
  "After": 2981,
  "force": 2982,
  "ceed": 2983,
  " attention": 2984,
  " particular": 2985,
  " bi": 2986,
  "][": 2987,
  "ening": 2988,
  " veh": 2989,
  " bud": 2990,
  " fear": 2991,
  " population": 2992,
  " various": 2993,
  " UK": 2994,
  " reach": 2995,
  "ma": 2996,
  " looks": 2997,
  " 23": 2998,
  " California": 2999,
  " brought": 3000,
  " vo": 3001,
  " Kore": 3002,
  " link": 3003,
  "ibly": 3004,
  ");": 3005,
  "urning": 3006,
  "arily": 3007,
  " IS": 3008,
  "200": 3009,
  "ED": 3010,
  " previous": 3011,
  " mention": 3012,
  " Russian": 3013,
  " morning": 3014,
  " Qu": 3015,
  "cle": 3016,
  "idered": 3017,
  "eg": 3018,
  "'d": 3019,
  " fair": 3020,
  " growth": 3021,
  "aker": 3022,
  " Sw": 3023,
  "undred": 3024,
  "99": 3025,
  "sequ": 3026,
  "yond": 3027,
  " progress": 3028,
  " fell": 3029,
  "raz": 3030,
  "alled": 3031,
  " song": 3032,
  "iam": 3033,
  " Cont": 3034,
  "AC": 3035,
  " training": 3036,
  "field": 3037,
  "hold": 3038,
  "uk": 3039,
  " size": 3040,
  " Black": 3041,
  "cies": 3042,
  " December": 3043,
  "idents": 3044,
  " contact": 3045,
  "ledge": 3046,
  " Her": 3047,
  " demand": 3048,
  "While": 3049,
  " image": 3050,
  " hor": 3051,
  " rac": 3052,
  " hot": 3053,
  "ification": 3054,
  "OS": 3055,
  " leader": 3056,
  "set": 3057,
  "ecause": 3058,
  " rules": 3059,
  " prep": 3060,
  " liber": 3061,
  " search": 3062,
  " ess": 3063,
  " Post": 3064,
  " citiz": 3065,
  " upon": 3066,
  " strugg": 3067,
  " Street": 3068,
  " latest": 3069,
  "come": 3070,
  " independ": 3071,
  "US": 3072,
  "uments": 3073,
  "inks": 3074,
  "arth": 3075,
  " features": 3076,
  " coach": 3077,
  "ondon": 3078,
  " Park": 3079,
  "iant": 3080,
  " fast": 3081,
  "oo": 3082,
  "Tr": 3083,
  "sych": 3084,
  " talking": 3085,
  " Jew": 3086,
  "omp": 3087,
  " addition": 3088,
  "ges": 3089,
  " star": 3090,
  " wond": 3091,
  " Senate": 3092,
  "IT": 3093,
  " Pat": 3094,
  " speed": 3095,
  " exam": 3096,
  " considered": 3097,
  "raq": 3098,
  "icles": 3099,
  "aries": 3100,
  " reb": 3101,
  "bed": 3102,
  " levels": 3103,
  "eth": 3104,
  " Times": 3105,
  " County": 3106,
  "elligence": 3107,
  " slow": 3108,
  " investigation": 3109,
  "ps": 3110,
  "ille": 3111,
  " conduct": 3112,
  "aph": 3113,
  " Party": 3114,
  "22": 3115,
  " King": 3116,
  " medical": 3117,
  " mach": 3118,
  "imately": 3119,
  "vent": 3120,
  " achie": 3121,
  " language": 3122,
  "aturday": 3123,
  " card": 3124,
  " sn": 3125,
  "unk": 3126,
  " sort": 3127,
  " critic": 3128,
  "ope": 3129,
  " Tex": 3130,
  " Center": 3131,
  " pen": 3132,
  " und": 3133,
  "wo": 3134,
  " India": 3135,
  " paper": 3136,
  "ysis": 3137,
  "IC": 3138,
  " 2008": 3139,
  "pir": 3140,
  " conserv": 3141,
  " parents": 3142,
  "imin": 3143,
  " sexual": 3144,
  " systems": 3145,
  " prior": 3146,
  "ha": 3147,
  "uit": 3148,
  "asc": 3149,
  " doll": 3150,
  " written": 3151,
  "uf": 3152,
  " box": 3153,
  " spokes": 3154,
  "igr": 3155,
  " seek": 3156,
  " sens": 3157,
  "het": 3158,
  " document": 3159,
  "idge": 3160,
  "eared": 3161,
  " increasing": 3162,
  " hear": 3163,
  "ani": 3164,
  "atform": 3165,
  " draw": 3166,
  " seven": 3167,
  " son": 3168,
  " Muslim": 3169,
  " effort": 3170,
  "ruary": 3171,
  " jobs": 3172,
  " Iran": 3173,
  " extreme": 3174,
  " prevent": 3175,
  " learn": 3176,
  "ining": 3177,
  " serious": 3178,
  " regul": 3179,
  "rast": 3180,
  " inn": 3181,
  " range": 3182,
  " ...": 3183,
  "room": 3184,
  " violence": 3185,
  " eight": 3186,
  " Mark": 3187,
  "80": 3188,
  "ources": 3189,
  " Iraq": 3190,
  "itch": 3191,
  "OP": 3192,
  " surve": 3193,
  " completely": 3194,
  " conc": 3195,
  " 2009": 3196,
  " message": 3197,
  "ico": 3198,
  "tr": 3199,
  "She": 3201,
  " obv": 3202,
  " interesting": 3203,
  "reedom": 3204,
  " screen": 3205,
  "abor": 3206,
  " opportunity": 3207,
  "eff": 3208,
  " climate": 3209,
  "24": 3210,
  "ext": 3211,
  " majority": 3212,
  " Ke": 3213,
  "anced": 3214,
  " particularly": 3215,
  " doub": 3216,
  " journal": 3217,
  " Rom": 3218,
  " despite": 3219,
  " claims": 3220,
  " Char": 3221,
  " answer": 3222,
  " society": 3223,
  " London": 3224,
  " defense": 3225,
  " carry": 3226,
  "entially": 3227,
  "aming": 3228,
  " guy": 3229,
  " extra": 3230,
  "ension": 3231,
  "mp": 3232,
  " Donald": 3233,
  "isions": 3234,
  " attacks": 3235,
  " required": 3236,
  "erve": 3237,
  "rench": 3238,
  "illed": 3239,
  " biggest": 3240,
  "vertisement": 3241,
  " East": 3242,
  " exactly": 3243,
  "iers": 3244,
  " paid": 3245,
  " More": 3246,
  "ibr": 3247,
  " experien": 3248,
  " aren": 3249,
  "lying": 3250,
  "uclear": 3251,
  "inese": 3252,
  " modern": 3253,
  " remain": 3254,
  " quarter": 3255,
  " officers": 3256,
  "ett": 3257,
  " hundred": 3258,
  " cross": 3259,
  " except": 3260,
  "utions": 3261,
  "ari": 3262,
  " table": 3263,
  " practice": 3264,
  " natural": 3265,
  "inally": 3266,
  " middle": 3267,
  "erc": 3268,
  " 27": 3269,
  " certainly": 3270,
  " dro": 3271,
  "add": 3272,
  "oses": 3273,
  " Saturday": 3274,
  " stories": 3275,
  " Net": 3276,
  " histor": 3277,
  " gas": 3278,
  " products": 3279,
  " surv": 3280,
  " looked": 3281,
  " sometimes": 3282,
  "nces": 3283,
  " stuff": 3284,
  " rout": 3285,
  " science": 3286,
  " finally": 3287,
  "AM": 3288,
  " user": 3289,
  " summer": 3290,
  " movie": 3291,
  " blood": 3292,
  "ospital": 3293,
  "aves": 3294,
  " communic": 3295,
  " aw": 3296,
  "ously": 3297,
  " lay": 3298,
  " changed": 3299,
  " ones": 3300,
  " leading": 3301,
  " described": 3302,
  " Sand": 3303,
  " imag": 3304,
  " term": 3305,
  " February": 3306,
  "fl": 3307,
  " prison": 3308,
  " convers": 3309,
  "ny": 3310,
  " details": 3311,
  "icks": 3312,
  " starting": 3313,
  " Spe": 3314,
  " quality": 3315,
  " occur": 3316,
  " pan": 3317,
  "hib": 3318,
  " showed": 3319,
  " named": 3320,
  " giving": 3321,
  " ult": 3322,
  " remains": 3323,
  " McC": 3324,
  "uing": 3325,
  " region": 3326,
  "pper": 3327,
  " provided": 3328,
  " costs": 3329,
  "akers": 3330,
  " Soc": 3331,
  "arr": 3332,
  " damage": 3333,
  " mob": 3334,
  " danger": 3335,
  " fit": 3336,
  "aught": 3337,
  " TH": 3338,
  " Tur": 3339,
  " chief": 3340,
  " poor": 3341,
  " path": 3342,
  " Mor": 3343,
  "ida": 3344,
  " education": 3345,
  " multiple": 3346,
  " continued": 3347,
  "enge": 3348,
  " Int": 3349,
  " growing": 3350,
  "No": 3351,
  " demonst": 3352,
  " Che": 3353,
  " *": 3354,
  " parts": 3355,
  "yl": 3356,
  " 26": 3357,
  " writing": 3358,
  " comments": 3359,
  " 28": 3360,
  " ment": 3361,
  " maintain": 3362,
  " safe": 3363,
  " assist": 3364,
  " thinking": 3365,
  " Des": 3366,
  "inary": 3367,
  " Republicans": 3368,
  " Even": 3369,
  " purp": 3370,
  " request": 3371,
  " write": 3372,
  " fix": 3373,
  " item": 3374,
  " purch": 3375,
  "ables": 3376,
  " died": 3377,
  " Democratic": 3378,
  " Coun": 3379,
  "FL": 3380,
  "ago": 3381,
  " ready": 3382,
  "coin": 3383,
  " wouldn": 3384,
  "23": 3385,
  " implement": 3386,
  " increased": 3387,
  " culture": 3388,
  "fort": 3389,
  " efforts": 3390,
  " voters": 3391,
  "ux": 3392,
  "pre": 3393,
  " camer": 3394,
  " mill": 3395,
  "aly": 3396,
  "....": 3397,
  "oper": 3398,
  " reading": 3399,
  "mitted": 3400,
  "iminal": 3401,
  " file": 3402,
  " usually": 3403,
  " calls": 3404,
  " spot": 3405,
  " effects": 3406,
  "Im": 3407,
  " Gener": 3408,
  "zz": 3409,
  " perhaps": 3410,
  "ban": 3411,
  " alone": 3412,
  "arian": 3413,
  "iles": 3414,
  " First": 3415,
  " although": 3416,
  " towards": 3417,
  " League": 3418,
  " consist": 3419,
  "de": 3420,
  " Bill": 3421,
  " Texas": 3422,
  " select": 3423,
  " guys": 3424,
  " standard": 3425,
  " Michael": 3426,
  " subst": 3427,
  " cele": 3428,
  " beyond": 3429,
  " directly": 3430,
  " platform": 3431,
  " Chinese": 3432,
  " (@": 3433,
  " hous": 3434,
  "using": 3435,
  "itute": 3436,
  " speech": 3437,
  " reality": 3438,
  "icated": 3439,
  " kids": 3440,
  " James": 3441,
  " avoid": 3442,
  " throughout": 3443,
  " football": 3444,
  " student": 3445,
  "ara": 3446,
  " couldn": 3447,
  "BI": 3448,
  "rowd": 3449,
  " unf": 3450,
  "ford": 3451,
  " immediately": 3452,
  "oul": 3453,
  " rob": 3454,
  " includes": 3455,
  " cat": 3456,
  " concept": 3457,
  "egr": 3458,
  " center": 3459,
  " choice": 3460,
  " scene": 3461,
  " complex": 3462,
  "anch": 3463,
  " additional": 3464,
  "sp": 3465,
  " Mon": 3466,
  " challeng": 3467,
  " Cons": 3468,
  " wife": 3469,
  " clos": 3470,
  "urt": 3471,
  " tro": 3472,
  " recomm": 3473,
  " researc": 3474,
  "Re": 3475,
  " epis": 3476,
  "hest": 3477,
  "itor": 3478,
  "All": 3479,
  " ver": 3480,
  " Minister": 3481,
  " sle": 3482,
  " corpor": 3483,
  " …": 3484,
  " designed": 3485,
  " Ser": 3486,
  "urg": 3487,
  "agon": 3488,
  " remember": 3489,
  " software": 3490,
  " safety": 3491,
  " Indian": 3492,
  "wise": 3493,
  " gone": 3494,
  " il": 3495,
  "astic": 3496,
  "ports": 3497,
  " cast": 3498,
  " sell": 3499,
  " toward": 3500,
  " agency": 3501,
  " ten": 3502,
  " officer": 3503,
  "aches": 3504,
  " figure": 3505,
  " piece": 3506,
  " brain": 3507,
  "omen": 3508,
  " battle": 3509,
  " Jack": 3510,
  "men": 3511,
  " counter": 3512,
  " debate": 3513,
  "airs": 3514,
  "ression": 3515,
  "ston": 3516,
  " thousands": 3517,
  "adem": 3518,
  " swe": 3519,
  "rupt": 3520,
  " opin": 3521,
  " ahead": 3522,
  "icient": 3523,
  "Now": 3524,
  "imum": 3525,
  " relative": 3526,
  "irth": 3527,
  " letter": 3528,
  " receive": 3529,
  " pressure": 3530,
  " Bo": 3532,
  " blog": 3533,
  "ilies": 3534,
  "ampions": 3535,
  " >": 3536,
  " sil": 3537,
  " moved": 3538,
  " launch": 3539,
  " appears": 3540,
  " option": 3541,
  " Play": 3542,
  " passed": 3543,
  " ut": 3544,
  " prec": 3545,
  " stage": 3546,
  "roy": 3547,
  "oes": 3548,
  " 60": 3549,
  " clean": 3550,
  " Serv": 3551,
  "olute": 3552,
  " II": 3553,
  "atever": 3554,
  "berg": 3555,
  "OT": 3556,
  " property": 3557,
  "27": 3558,
  " helped": 3559,
  "amb": 3560,
  " drive": 3561,
  " Apple": 3562,
  "just": 3563,
  " alleged": 3564,
  " Green": 3565,
  " twe": 3566,
  "new": 3567,
  " disapp": 3568,
  " tour": 3569,
  " meaning": 3570,
  " rock": 3571,
  " dog": 3572,
  " x": 3573,
  " cris": 3574,
  "itation": 3575,
  " Associ": 3576,
  " suspect": 3577,
  " date": 3578,
  " Rich": 3579,
  "aughter": 3580,
  " moving": 3581,
  " score": 3582,
  " Democrats": 3583,
  " organization": 3584,
  " sat": 3585,
  " conditions": 3586,
  " touch": 3587,
  " dark": 3588,
  "?\"": 3589,
  " command": 3590,
  " Then": 3591,
  " ign": 3592,
  " reasons": 3593,
  " budget": 3594,
  " park": 3595,
  "more": 3596,
  " nuclear": 3597,
  " myself": 3598,
  " nom": 3599,
  " deg": 3600,
  " happy": 3601,
  " device": 3602,
  " difference": 3603,
  "rief": 3604,
  " Sim": 3605,
  " maybe": 3606,
  "AD": 3607,
  "chan": 3608,
  " beginning": 3609,
  " copy": 3610,
  " nature": 3611,
  " failed": 3612,
  "wood": 3613,
  " fan": 3614,
  " characters": 3615,
  "yan": 3616,
  " computer": 3617,
  " encour": 3618,
  " aim": 3619,
  " Mart": 3620,
  " title": 3621,
  " wall": 3622,
  " compared": 3623,
  " league": 3624,
  "ocked": 3625,
  " Super": 3626,
  "ivity": 3627,
  " estim": 3628,
  " Val": 3629,
  " Star": 3630,
  " college": 3631,
  " eyes": 3632,
  " shown": 3633,
  " English": 3634,
  " century": 3635,
  " powerful": 3636,
  " Day": 3637,
  "lease": 3638,
  "ource": 3639,
  " bal": 3640,
  "aint": 3641,
  " limited": 3642,
  " yes": 3643,
  " band": 3644,
  " contribut": 3645,
  " positive": 3646,
  " forced": 3647,
  " sche": 3648,
  " necessary": 3649,
  " refer": 3650,
  " candidate": 3651,
  " stra": 3652,
  " disp": 3653,
  "35": 3654,
  "cient": 3655,
  " books": 3656,
  "AP": 3657,
  " trust": 3658,
  " French": 3659,
  " largest": 3660,
  "26": 3661,
  " arch": 3662,
  "enty": 3663,
  " sal": 3664,
  " Here": 3665,
  " conference": 3666,
  " Rober": 3667,
  "aud": 3668,
  " note": 3669,
  " analysis": 3670,
  "ufact": 3671,
  " spending": 3672,
  " presidential": 3673,
  "45": 3674,
  " Of": 3675,
  " citizens": 3676,
  "orks": 3677,
  " schools": 3678,
  "igration": 3679,
  " Syria": 3680,
  " throw": 3681,
  "venue": 3682,
  " Ben": 3683,
  " aware": 3684,
  " meant": 3685,
  " executive": 3686,
  " eventually": 3687,
  "My": 3688,
  " physical": 3689,
  " followed": 3690,
  " feature": 3691,
  " treatment": 3692,
  " crowd": 3693,
  "Be": 3694,
  " Tor": 3695,
  " Wind": 3696,
  " firm": 3697,
  " streng": 3698,
  " confir": 3699,
  " mix": 3700,
  " bott": 3701,
  "ero": 3702,
  " correct": 3703,
  "orney": 3704,
  " 29": 3705,
  "ares": 3706,
  " Dis": 3707,
  " grad": 3708,
  " religious": 3709,
  " easily": 3710,
  " autom": 3711,
  " esc": 3712,
  " pus": 3713,
  "band": 3714,
  "board": 3715,
  "Is": 3716,
  " cool": 3717,
  "etro": 3718,
  " 196": 3719,
  " families": 3720,
  " illeg": 3721,
  "ressed": 3722,
  "craft": 3723,
  "cul": 3724,
  "rated": 3725,
  " actions": 3726,
  " overall": 3727,
  " Air": 3728,
  " Mex": 3729,
  " allows": 3730,
  " gives": 3731,
  " feed": 3732,
  " £": 3733,
  "):": 3734,
  " susp": 3735,
  "ube": 3736,
  " yourself": 3737,
  "By": 3738,
  " draft": 3739,
  "bum": 3740,
  "ken": 3741,
  " smart": 3742,
  " appeared": 3743,
  " detail": 3744,
  " income": 3745,
  "iring": 3746,
  " analy": 3747,
  " Bel": 3748,
  " signed": 3749,
  "New": 3750,
  "encies": 3751,
  " central": 3752,
  " ideas": 3753,
  " ang": 3754,
  " Govern": 3755,
  " senior": 3756,
  "Advertisement": 3757,
  " frequ": 3758,
  " weapons": 3759,
  "ID": 3760,
  " Bre": 3761,
  " har": 3762,
  " display": 3763,
  " promot": 3764,
  " nice": 3765,
  " credit": 3766,
  " decades": 3767,
  " psych": 3768,
  " politics": 3769,
  "Don": 3770,
  " crime": 3771,
  "OM": 3772,
  "EC": 3773,
  " uses": 3774,
  "inn": 3775,
  " door": 3776,
  " dise": 3777,
  "uty": 3778,
  " International": 3779,
  " unique": 3780,
  "28": 3781,
  " altern": 3782,
  " lif": 3783,
  "According": 3784,
  " drop": 3785,
  " sales": 3786,
  "mar": 3787,
  "Ar": 3788,
  " developed": 3789,
  "resh": 3790,
  " customers": 3791,
  "ET": 3792,
  " benefits": 3793,
  " conflic": 3794,
  "urance": 3795,
  " related": 3796,
  " crisis": 3797,
  " School": 3798,
  " mist": 3799,
  "erry": 3800,
  "iable": 3801,
  " predict": 3802,
  " noted": 3803,
  " Cap": 3804,
  "29": 3805,
  " Australia": 3806,
  " EU": 3807,
  " truth": 3808,
  "box": 3809,
  "part": 3810,
  " goals": 3811,
  "iny": 3812,
  " individuals": 3813,
  " charge": 3814,
  " Earth": 3815,
  " beaut": 3816,
  "onents": 3817,
  " continues": 3818,
  " Union": 3819,
  " Arab": 3820,
  " observ": 3821,
  " rap": 3822,
  " challenge": 3823,
  " sto": 3824,
  "nown": 3825,
  " apparent": 3826,
  " Angel": 3827,
  "itely": 3828,
  " Smith": 3829,
  " lic": 3830,
  " projects": 3831,
  " peace": 3832,
  " measure": 3833,
  " Police": 3834,
  "oti": 3835,
  " intelligence": 3836,
  " Christian": 3837,
  " previously": 3838,
  " Germany": 3839,
  " fully": 3840,
  " rule": 3841,
  " manager": 3842,
  " brother": 3843,
  " rates": 3844,
  " advant": 3845,
  "Un": 3846,
  "change": 3847,
  " expand": 3848,
  " clearly": 3849,
  " reform": 3850,
  " lines": 3851,
  "net": 3852,
  " successful": 3853,
  "riage": 3854,
  " highly": 3855,
  " larger": 3856,
  "ounds": 3857,
  "21": 3858,
  " traff": 3859,
  " spread": 3860,
  "iance": 3861,
  " seemed": 3862,
  " Council": 3863,
  " straight": 3864,
  "Some": 3865,
  " criminal": 3866,
  " Comp": 3867,
  " minor": 3868,
  " emb": 3869,
  "ki": 3870,
  " George": 3871,
  " programs": 3872,
  "iced": 3873,
  "attle": 3874,
  "owers": 3875,
  " Franc": 3876,
  " incident": 3877,
  " resources": 3878,
  " Tom": 3879,
  " greater": 3880,
  " primary": 3881,
  "IA": 3882,
  "inated": 3883,
  "antly": 3884,
  " knowledge": 3885,
  "Pro": 3886,
  " studies": 3887,
  "while": 3888,
  "dom": 3889,
  " save": 3890,
  "orter": 3891,
  " web": 3892,
  "ategy": 3893,
  "ean": 3894,
  " kept": 3895,
  " attract": 3896,
  " Flor": 3897,
  "olic": 3898,
  " spir": 3899,
  " emot": 3900,
  " color": 3901,
  "que": 3902,
  " feet": 3903,
  " Cr": 3904,
  "sey": 3905,
  " rare": 3906,
  " reached": 3907,
  " Ant": 3908,
  "secut": 3909,
  " arm": 3910,
  " High": 3911,
  "levision": 3912,
  " Internet": 3913,
  " Brown": 3914,
  "oday": 3915,
  "iders": 3916,
  "osh": 3917,
  " favorite": 3918,
  " places": 3919,
  "rs": 3920,
  " Rec": 3921,
  " regular": 3922,
  "wide": 3923,
  "ota": 3924,
  "vere": 3925,
  " manufact": 3926,
  " laun": 3927,
  " Def": 3928,
  "100": 3929,
  " send": 3930,
  " prem": 3931,
  " Ham": 3932,
  "roll": 3933,
  "lick": 3934,
  "icit": 3935,
  " knows": 3936,
  " shooting": 3937,
  " activity": 3938,
  " pun": 3939,
  " sources": 3940,
  " normal": 3941,
  "icago": 3942,
  "bon": 3943,
  "term": 3944,
  "ingly": 3945,
  "onent": 3946,
  "ser": 3947,
  "ville": 3948,
  " status": 3949,
  " fighting": 3950,
  " voice": 3951,
  " rise": 3952,
  "ocks": 3953,
  " fine": 3954,
  " owners": 3955,
  " caused": 3956,
  " claimed": 3957,
  " Mac": 3958,
  " enem": 3959,
  " liter": 3960,
  " Rob": 3961,
  " Up": 3962,
  " General": 3963,
  "aith": 3964,
  "EO": 3965,
  " options": 3966,
  " 2007": 3967,
  " integr": 3968,
  "ength": 3969,
  "usion": 3970,
  " spend": 3971,
  " Gold": 3972,
  "ado": 3973,
  " cities": 3974,
  "miss": 3975,
  " organiz": 3976,
  "ING": 3977,
  " ended": 3978,
  "iled": 3979,
  " researchers": 3980,
  " calling": 3981,
  " shut": 3982,
  " reflect": 3983,
  " La": 3984,
  "mission": 3985,
  "mark": 3986,
  "org": 3987,
  "”,": 3988,
  "oles": 3989,
  "70": 3990,
  "roid": 3991,
  " prices": 3992,
  " Every": 3993,
  " album": 3994,
  " From": 3995,
  "ifying": 3996,
  " employees": 3997,
  " female": 3998,
  " England": 3999,
  "ya": 4000,
  "www": 4001,
  " virt": 4002,
  " haven": 4003,
  " raised": 4004,
  "mittee": 4005,
  " ele": 4006,
  " jump": 4007,
  "uana": 4008,
  "33": 4009,
  " supposed": 4010,
  "itness": 4011,
  " happens": 4012,
  " adding": 4013,
  " policies": 4014,
  " names": 4015,
  " charges": 4016,
  " pros": 4017,
  " trou": 4018,
  "ica": 4019,
  "ribution": 4020,
  " basic": 4021,
  "iverse": 4022,
  "uman": 4023,
  "Not": 4024,
  " Mag": 4025,
  " concerns": 4026,
  " traditional": 4027,
  " wait": 4028,
  "inger": 4029,
  " plant": 4030,
  " absolute": 4031,
  " acqu": 4032,
  " hospital": 4033,
  " funding": 4034,
  "ram": 4035,
  " Bay": 4036,
  " print": 4037,
  " slight": 4038,
  " commer": 4039,
  "rol": 4040,
  " patients": 4041,
  " authorities": 4042,
  " minister": 4043,
  "Sc": 4044,
  " creating": 4045,
  " freedom": 4046,
  " AP": 4047,
  " mechan": 4048,
  " scen": 4049,
  " Mo": 4050,
  " style": 4051,
  " seeing": 4052,
  ".’": 4053,
  " grand": 4054,
  " beat": 4055,
  " lik": 4056,
  "ona": 4057,
  "rian": 4058,
  " station": 4059,
  " Scott": 4060,
  "see": 4061,
  " push": 4062,
  ".'": 4063,
  "ijuana": 4064,
  " behavior": 4065,
  " beg": 4066,
  " leaving": 4067,
  " cry": 4068,
  " impl": 4069,
  " birth": 4070,
  " ir": 4071,
  " actual": 4072,
  "EL": 4073,
  " ensure": 4074,
  " offered": 4075,
  "pen": 4076,
  " agreement": 4077,
  " Florida": 4078,
  " eth": 4079,
  "soft": 4080,
  " Hillary": 4081,
  " posted": 4082,
  " gold": 4083,
  " Sun": 4084,
  " weekend": 4085,
  " green": 4086,
  " Most": 4087,
  " Ber": 4088,
  " Reg": 4089,
  " adult": 4090,
  "alse": 4091,
  " weight": 4092,
  "OU": 4093,
  "acing": 4094,
  " determin": 4095,
  " vac": 4096,
  "Here": 4097,
  " revealed": 4098,
  " Well": 4099,
  " application": 4100,
  " mostly": 4101,
  " values": 4102,
  "aby": 4103,
  " propos": 4104,
  "itude": 4105,
  " Alex": 4106,
  " willing": 4107,
  "earch": 4108,
  " rank": 4109,
  " adop": 4110,
  " According": 4111,
  " establ": 4112,
  " eye": 4113,
  " records": 4114,
  "ection": 4115,
  "•": 4116,
  "500": 4117,
  " enforce": 4118,
  "http": 4119,
  " picture": 4120,
  " believed": 4121,
  "pri": 4122,
  " mer": 4123,
  "uild": 4124,
  " brief": 4125,
  " Let": 4126,
  " learned": 4127,
  " Law": 4128,
  " install": 4129,
  " strategy": 4130,
  "SA": 4131,
  " appl": 4132,
  "igned": 4133,
  " choose": 4134,
  "istry": 4135,
  " dire": 4136,
  " wonder": 4137,
  " qual": 4138,
  " massive": 4139,
  " devices": 4140,
  " benefit": 4141,
  " wild": 4142,
  " parties": 4143,
  " Chicago": 4144,
  " lawy": 4145,
  " People": 4146,
  " uns": 4147,
  "cher": 4148,
  " cars": 4149,
  " Port": 4150,
  " Trans": 4151,
  "cont": 4152,
  " Phil": 4153,
  " arrested": 4154,
  " mount": 4155,
  " whatever": 4156,
  " wat": 4157,
  " Oh": 4158,
  " France": 4159,
  " street": 4160,
  " ;": 4161,
  " provides": 4162,
  " whom": 4163,
  " assault": 4164,
  "90": 4165,
  "liament": 4166,
  " asking": 4167,
  " influence": 4168,
  "ties": 4169,
  " judge": 4170,
  " lose": 4171,
  " fat": 4172,
  " feeling": 4173,
  " operations": 4174,
  " produced": 4175,
  " temper": 4176,
  "ste": 4177,
  " critical": 4178,
  " Secret": 4179,
  " Lou": 4180,
  " negoti": 4181,
  "point": 4182,
  " mission": 4183,
  " enter": 4184,
  " Bush": 4185,
  "Ex": 4186,
  " images": 4187,
  "о": 4188,
  " Stud": 4189,
  " confirmed": 4190,
  " showing": 4191,
  "IL": 4192,
  " district": 4193,
  "ription": 4194,
  " runs": 4195,
  " pattern": 4196,
  "gen": 4197,
  " tend": 4198,
  " Mat": 4199,
  " border": 4200,
  " residents": 4201,
  "orial": 4202,
  "rav": 4203,
  " debt": 4204,
  "However": 4205,
  "aked": 4207,
  "no": 4208,
  " cru": 4209,
  " teac": 4210,
  "mine": 4211,
  " Committee": 4212,
  "udd": 4213,
  " opposition": 4214,
  " celebr": 4215,
  "Cl": 4216,
  " Wall": 4217,
  " Health": 4218,
  " section": 4219,
  " defend": 4220,
  " etc": 4221,
  "estic": 4222,
  " produce": 4223,
  "icial": 4224,
  " Commission": 4225,
  " drink": 4226,
  " independent": 4227,
  " Mod": 4228,
  "ront": 4229,
  "cell": 4230,
  " Why": 4231,
  " brand": 4232,
  "ented": 4233,
  "ags": 4234,
  "ugg": 4235,
  " core": 4236,
  " Press": 4237,
  " tick": 4238,
  " digital": 4239,
  " Bit": 4240,
  " hero": 4241,
  " advoc": 4242,
  "ae": 4243,
  " dollars": 4244,
  "ocr": 4245,
  "rial": 4246,
  " effective": 4247,
  " solution": 4248,
  " Mal": 4249,
  " vill": 4250,
  " interested": 4251,
  " Sam": 4252,
  " Korea": 4253,
  "BA": 4254,
  " highest": 4255,
  "ords": 4256,
  " memory": 4257,
  " opening": 4258,
  " worse": 4259,
  " learning": 4260,
  " responsible": 4261,
  " trial": 4262,
  " daily": 4263,
  " kick": 4264,
  " theory": 4265,
  " Other": 4266,
  " offers": 4267,
  " Palest": 4268,
  " replace": 4269,
  " restrict": 4270,
  " Get": 4271,
  " mur": 4272,
  " Office": 4273,
  " agreed": 4274,
  " television": 4275,
  " Francis": 4276,
  "cience": 4277,
  " Micro": 4278,
  " Because": 4279,
  " occas": 4280,
  "ST": 4281,
  "CC": 4282,
  "illing": 4283,
  " train": 4284,
  " investment": 4285,
  " vs": 4286,
  " types": 4287,
  "iation": 4288,
  " Western": 4289,
  "aks": 4290,
  "icians": 4291,
  " chair": 4292,
  " miles": 4293,
  " millions": 4294,
  "uries": 4295,
  " chem": 4296,
  " Justice": 4297,
  " Del": 4298,
  " generally": 4299,
  " basis": 4300,
  " proposed": 4301,
  " 80": 4302,
  " Mike": 4303,
  " Mil": 4304,
  " Cup": 4305,
  "These": 4306,
  "ipe": 4307,
  " heavy": 4308,
  " explained": 4309,
  "AA": 4310,
  " map": 4311,
  " Our": 4312,
  "rad": 4313,
  " der": 4314,
  " bur": 4315,
  "oly": 4316,
  " partners": 4317,
  "ander": 4318,
  " Add": 4319,
  " opinion": 4320,
  "win": 4321,
  " defe": 4322,
  " onto": 4323,
  " protest": 4324,
  "Con": 4325,
  "________": 4326,
  "Get": 4327,
  " associated": 4328,
  " load": 4329,
  "rig": 4330,
  "azing": 4331,
  " NFL": 4332,
  "rate": 4333,
  "oom": 4334,
  "44": 4335,
  " Found": 4336,
  " male": 4337,
  " becomes": 4338,
  " reject": 4339,
  "outhern": 4340,
  "====": 4341,
  " Security": 4342,
  "vest": 4343,
  " coal": 4344,
  " obtain": 4345,
  " destroy": 4346,
  " advantage": 4347,
  " assum": 4348,
  " Liber": 4349,
  " condition": 4350,
  " announce": 4351,
  " hundreds": 4352,
  " achieve": 4353,
  " opened": 4354,
  "eline": 4355,
  " understanding": 4356,
  "odes": 4357,
  " Johnson": 4358,
  "coming": 4359,
  "icip": 4360,
  " surround": 4361,
  "ading": 4362,
  "orthern": 4363,
  "bert": 4364,
  "well": 4365,
  "la": 4366,
  "upp": 4367,
  " initial": 4368,
  " Att": 4369,
  " Big": 4370,
  " sleep": 4371,
  "36": 4372,
  " ship": 4373,
  " marriage": 4374,
  " management": 4375,
  " Windows": 4376,
  " thus": 4377,
  " limit": 4378,
  " born": 4379,
  "32": 4380,
  " becoming": 4381,
  "known": 4382,
  " photo": 4383,
  " easier": 4384,
  "FC": 4385,
  " Great": 4386,
  " rat": 4387,
  " legislation": 4388,
  " controvers": 4389,
  " unlike": 4390,
  " electric": 4391,
  " Many": 4392,
  " camera": 4393,
  "witch": 4394,
  " accused": 4395,
  " spl": 4396,
  " neighbor": 4397,
  " double": 4398,
  " ice": 4399,
  " species": 4400,
  "lant": 4401,
  " shared": 4402,
  " join": 4403,
  " illegal": 4404,
  " 31": 4405,
  " Lab": 4406,
  " 2006": 4407,
  "Mr": 4408,
  " harm": 4409,
  " machine": 4410,
  " served": 4411,
  " Jer": 4412,
  "GB": 4413,
  " extremely": 4414,
  "olf": 4415,
  " active": 4416,
  " 35": 4417,
  " serve": 4418,
  " documents": 4419,
  " Islamic": 4420,
  " frame": 4421,
  "za": 4422,
  " strik": 4423,
  "level": 4424,
  " Dist": 4425,
  " audience": 4426,
  "BS": 4427,
  " location": 4428,
  " AM": 4429,
  " scientists": 4430,
  " bottom": 4431,
  " victims": 4432,
  " Art": 4433,
  "orrow": 4434,
  " wealth": 4435,
  " professional": 4436,
  " resist": 4437,
  "ih": 4438,
  " reduce": 4439,
  " belief": 4440,
  " nine": 4441,
  " solid": 4442,
  " winning": 4443,
  " marijuana": 4444,
  "ears": 4445,
  " Uk": 4446,
  " negative": 4447,
  "75": 4448,
  "iful": 4449,
  " communities": 4450,
  " returned": 4451,
  "ortunately": 4452,
  " bed": 4453,
  " incred": 4454,
  " PM": 4455,
  " Institute": 4456,
  "met": 4457,
  "PS": 4458,
  "tered": 4459,
  " church": 4460,
  " department": 4461,
  "irgin": 4462,
  " Sanders": 4463,
  " ran": 4464,
  " victory": 4465,
  "rey": 4466,
  " purpose": 4467,
  " 90": 4468,
  " Commun": 4469,
  " amb": 4470,
  "lands": 4471,
  " vehicle": 4472,
  " internet": 4473,
  " leadership": 4474,
  "ios": 4475,
  " Hall": 4476,
  "istics": 4477,
  " bomb": 4478,
  " mobile": 4479,
  "ghan": 4480,
  " instance": 4481,
  "ipped": 4482,
  "38": 4483,
  " separate": 4484,
  " existing": 4485,
  " notice": 4486,
  " hearing": 4487,
  " die": 4488,
  " explain": 4489,
  " doubt": 4490,
  " faith": 4491,
  " teach": 4492,
  "house": 4493,
  " Your": 4494,
  "atically": 4495,
  " episode": 4496,
  " watching": 4497,
  " comfort": 4498,
  " Canadian": 4499,
  " Bank": 4500,
  " notes": 4501,
  " radio": 4502,
  " Ev": 4503,
  " fresh": 4504,
  " Fin": 4505,
  " unc": 4506,
  " views": 4507,
  " Inc": 4508,
  " putting": 4509,
  "asy": 4510,
  " supporters": 4511,
  " conservative": 4512,
  " purs": 4513,
  " argument": 4514,
  "omas": 4515,
  " micro": 4516,
  "ario": 4517,
  "acity": 4518,
  " launched": 4519,
  "scrib": 4520,
  "works": 4521,
  "OL": 4522,
  " appeal": 4523,
  "iliar": 4524,
  " items": 4525,
  " committee": 4526,
  "resp": 4527,
  " Mad": 4528,
  "which": 4529,
  " definitely": 4530,
  "PA": 4531,
  " dangerous": 4532,
  "iller": 4533,
  "zen": 4534,
  " coverage": 4535,
  " direction": 4536,
  " Over": 4537,
  " charged": 4538,
  " floor": 4539,
  " sun": 4540,
  " max": 4541,
  "ography": 4542,
  "EM": 4543,
  "34": 4544,
  " Carol": 4545,
  " Church": 4546,
  " Fox": 4547,
  " issued": 4548,
  " drugs": 4549,
  "Image": 4550,
  "ipp": 4551,
  " task": 4552,
  " background": 4553,
  " competition": 4554,
  " trend": 4555,
  " stated": 4556,
  "vention": 4557,
  "andom": 4558,
  "ada": 4559,
  " traffic": 4560,
  " FBI": 4561,
  " commercial": 4562,
  " Direct": 4563,
  "urb": 4564,
  "itt": 4565,
  "NA": 4566,
  " spoke": 4567,
  " sett": 4568,
  "inct": 4569,
  " transfer": 4570,
  " suggested": 4571,
  " structure": 4572,
  " sites": 4573,
  " hus": 4574,
  " north": 4575,
  " Since": 4576,
  " Like": 4577,
  " restaur": 4578,
  "ampionship": 4579,
  " labor": 4580,
  " decade": 4581,
  " repeated": 4582,
  " Game": 4583,
  " react": 4584,
  "oman": 4585,
  " cards": 4586,
  " animals": 4587,
  "going": 4588,
  " novel": 4589,
  "ctors": 4590,
  "but": 4591,
  "ribute": 4592,
  " daughter": 4593,
  "anted": 4594,
  " Sl": 4595,
  " driving": 4596,
  " closed": 4597,
  " worst": 4598,
  " contain": 4599,
  " entirely": 4600,
  " ded": 4601,
  " Britain": 4602,
  "ady": 4603,
  "gency": 4604,
  " driver": 4605,
  " Wil": 4606,
  " disease": 4607,
  " telling": 4608,
  "iling": 4609,
  " smaller": 4610,
  " discovered": 4611,
  " nor": 4612,
  "Bl": 4613,
  "akistan": 4614,
  " refere": 4615,
  " Pri": 4616,
  "Americ": 4617,
  " Los": 4618,
  "ius": 4619,
  " hack": 4620,
  "hem": 4621,
  "equ": 4622,
  "!”": 4623,
  "ference": 4624,
  " Que": 4625,
  "spe": 4626,
  " false": 4627,
  " cash": 4628,
  " concerned": 4629,
  "ulf": 4630,
  " plays": 4631,
  " surface": 4632,
  "semb": 4633,
  " supported": 4634,
  "annel": 4635,
  "ulated": 4636,
  " tools": 4637,
  "oyal": 4638,
  " compar": 4639,
  " transport": 4640,
  " Chris": 4641,
  " experiment": 4642,
  " finding": 4643,
  "night": 4644,
  " categ": 4645,
  " aspect": 4647,
  "##": 4648,
  " businesses": 4649,
  " 70": 4650,
  " UN": 4651,
  "ait": 4652,
  " farm": 4653,
  " please": 4654,
  " older": 4655,
  "azon": 4656,
  "how": 4657,
  " activities": 4658,
  " requires": 4659,
  "phone": 4660,
  "CH": 4661,
  " gay": 4662,
  " Jones": 4663,
  "do": 4664,
  "ibrary": 4665,
  " strength": 4666,
  "48": 4667,
  " wel": 4668,
  "andon": 4669,
  " insurance": 4670,
  " consequ": 4671,
  "37": 4672,
  " largely": 4673,
  "NN": 4674,
  " murder": 4675,
  "ici": 4676,
  "55": 4677,
  " exerc": 4678,
  " caught": 4679,
  " candidates": 4680,
  "kins": 4681,
  " Israeli": 4682,
  " allowing": 4683,
  "icy": 4684,
  " blue": 4685,
  " Are": 4686,
  " annual": 4687,
  " Ken": 4688,
  " Tre": 4689,
  " testing": 4690,
  "ossible": 4691,
  " strateg": 4692,
  " Sup": 4693,
  " raise": 4694,
  " stock": 4695,
  "arant": 4696,
  "overy": 4697,
  " Robert": 4698,
  "izes": 4699,
  " decisions": 4700,
  " accur": 4701,
  "rick": 4702,
  " context": 4703,
  "SP": 4704,
  " fuel": 4705,
  " Ac": 4706,
  "lor": 4707,
  "osure": 4708,
  " Ukrain": 4709,
  " concern": 4710,
  " afford": 4711,
  " believes": 4712,
  " construction": 4713,
  " truly": 4714,
  "****": 4715,
  " Ty": 4716,
  " Miss": 4717,
  " ge": 4718,
  " justice": 4719,
  "igrants": 4720,
  " generation": 4721,
  " highlight": 4722,
  " unit": 4723,
  "rim": 4724,
  " presence": 4725,
  " Jewish": 4726,
  "anging": 4727,
  "!!": 4728,
  " Sil": 4729,
  "а": 4730,
  "tery": 4731,
  "е": 4732,
  "ception": 4733,
  " Africa": 4734,
  " guess": 4735,
  "ancy": 4736,
  " witness": 4737,
  "itable": 4738,
  " holding": 4739,
  " Gree": 4740,
  " establish": 4741,
  " length": 4742,
  " planning": 4743,
  "bre": 4744,
  "ava": 4745,
  " African": 4746,
  " sequ": 4747,
  "cknow": 4748,
  " refuge": 4749,
  " placed": 4750,
  " catch": 4751,
  " Afghan": 4752,
  " san": 4753,
  "inter": 4754,
  " Association": 4755,
  " tells": 4756,
  "‘": 4757,
  " scale": 4758,
  "ey": 4759,
  " spokesman": 4760,
  " tim": 4761,
  "nel": 4762,
  " rough": 4763,
  " attend": 4764,
  "olly": 4765,
  " Ver": 4766,
  " cells": 4767,
  " joined": 4768,
  " Pre": 4769,
  " mentioned": 4770,
  " interests": 4771,
  " abuse": 4772,
  "pective": 4773,
  " Jim": 4774,
  " hasn": 4775,
  "More": 4776,
  " PC": 4777,
  "Le": 4778,
  " initi": 4779,
  " enforcement": 4780,
  " kid": 4781,
  " GOP": 4782,
  " introduced": 4783,
  " deliver": 4784,
  " conflict": 4785,
  " Mer": 4786,
  " Microsoft": 4787,
  " phil": 4788,
  "——": 4789,
  " update": 4790,
  " missing": 4791,
  "ros": 4792,
  " providing": 4793,
  " waiting": 4794,
  " cancer": 4795,
  "39": 4796,
  " recommend": 4797,
  "ocracy": 4798,
  " established": 4799,
  "isation": 4800,
  " eat": 4801,
  "bour": 4802,
  " Yes": 4803,
  " occup": 4804,
  " Frank": 4805,
  " Jeff": 4806,
  " Angeles": 4807,
  " removed": 4808,
  " 2005": 4809,
  "ula": 4810,
  " offensive": 4811,
  " Fore": 4812,
  " Instead": 4813,
  "icon": 4814,
  " injury": 4815,
  " sports": 4816,
  "47": 4817,
  " fant": 4818,
  " discussion": 4819,
  "vant": 4820,
  " operation": 4821,
  " download": 4822,
  " useful": 4823,
  " newsp": 4824,
  " conversation": 4825,
  " homes": 4826,
  "ronic": 4827,
  " south": 4828,
  " cook": 4829,
  " CEO": 4830,
  " assess": 4831,
  " Group": 4832,
  "itz": 4833,
  "formation": 4834,
  "lig": 4835,
  " banks": 4836,
  "onto": 4837,
  " stopped": 4838,
  " Step": 4839,
  " Const": 4840,
  " obvious": 4841,
  "ications": 4842,
  " measures": 4843,
  " models": 4844,
  " Kh": 4845,
  " fourth": 4846,
  " MP": 4847,
  "Our": 4848,
  "DA": 4849,
  "season": 4850,
  "what": 4851,
  " bul": 4852,
  "anda": 4853,
  " 2018": 4854,
  " files": 4855,
  " girls": 4856,
  " Louis": 4857,
  " stick": 4858,
  "cks": 4859,
  "azine": 4860,
  "mail": 4861,
  "umn": 4862,
  " managed": 4863,
  "iter": 4864,
  "apped": 4865,
  " Palestin": 4866,
  "oted": 4867,
  " figures": 4868,
  "oms": 4869,
  " Tim": 4870,
  " Leg": 4871,
  " identified": 4872,
  " graph": 4873,
  " Jud": 4874,
  " Sal": 4875,
  " finished": 4876,
  " funds": 4877,
  "Pl": 4878,
  " Pakistan": 4879,
  "real": 4880,
  " setting": 4881,
  " conclud": 4882,
  " prefer": 4883,
  " hair": 4884,
  " committed": 4885,
  " Mexico": 4886,
  "49": 4887,
  " skills": 4888,
  "kin": 4889,
  " appropri": 4890,
  " spirit": 4891,
  " Rock": 4892,
  " veter": 4893,
  " focused": 4894,
  " arrived": 4895,
  " THE": 4896,
  " housing": 4897,
  " Virgin": 4898,
  " keeping": 4899,
  " therefore": 4900,
  " acknow": 4901,
  " detect": 4902,
  "ulate": 4903,
  "Des": 4904,
  " partner": 4905,
  " exclus": 4906,
  "igan": 4907,
  " Android": 4908,
  "enses": 4909,
  "ups": 4910,
  " earth": 4911,
  " transl": 4912,
  "outs": 4913,
  "place": 4914,
  " tough": 4915,
  " Japanese": 4916,
  " 2000": 4917,
  " relatively": 4918,
  "á": 4919,
  " Supreme": 4920,
  "owl": 4921,
  "wing": 4922,
  " identity": 4923,
  " feels": 4924,
  "rd": 4925,
  " Met": 4926,
  " otherwise": 4927,
  "RA": 4928,
  " survey": 4929,
  " Ryan": 4930,
  "ocal": 4931,
  "ication": 4932,
  "itutional": 4933,
  " protection": 4934,
  "agn": 4935,
  " exchange": 4936,
  " owner": 4937,
  "isf": 4938,
  "Trump": 4939,
  " steps": 4940,
  " Inter": 4941,
  " trip": 4942,
  "imb": 4943,
  " husband": 4944,
  " Mont": 4945,
  " tweet": 4946,
  " connection": 4947,
  " Army": 4948,
  " slightly": 4949,
  " Prof": 4950,
  "eah": 4951,
  "ka": 4952,
  " weak": 4953,
  " Government": 4954,
  "verse": 4955,
  "\":": 4956,
  " circum": 4957,
  " elements": 4958,
  " click": 4959,
  " Richard": 4960,
  " strike": 4961,
  " photos": 4962,
  "ga": 4963,
  " mere": 4964,
  " defensive": 4965,
  "dden": 4966,
  "gar": 4967,
  " gain": 4968,
  " fle": 4969,
  " depend": 4970,
  "ucky": 4971,
  " collection": 4972,
  "onym": 4973,
  "hens": 4974,
  " killing": 4975,
  " roll": 4976,
  "ighter": 4977,
  "Go": 4978,
  " corner": 4979,
  " Martin": 4980,
  "ancing": 4981,
  "odies": 4982,
  " suggests": 4983,
  "uct": 4984,
  " aggress": 4985,
  "with": 4986,
  "prof": 4987,
  " guard": 4988,
  "Photo": 4989,
  " gender": 4990,
  "makers": 4991,
  " College": 4992,
  " commission": 4993,
  " Although": 4994,
  "range": 4995,
  " dat": 4996,
  " Sur": 4997,
  "46": 4998,
  " Ir": 4999,
  " Dec": 5000,
  " mental": 5001,
  "icide": 5002,
  " amazing": 5003,
  "rees": 5004,
  "hi": 5005,
  " Sub": 5006,
  " planet": 5007,
  " Team": 5008,
  "rency": 5009,
  " Out": 5010,
  " bigger": 5011,
  " failure": 5012,
  "ym": 5013,
  " Jose": 5014,
  " supply": 5015,
  "Why": 5016,
  "ania": 5017,
  " Nor": 5018,
  " starts": 5019,
  "gers": 5020,
  " sides": 5021,
  "hedul": 5022,
  "iser": 5023,
  " familiar": 5024,
  " remind": 5025,
  " sust": 5026,
  " spect": 5027,
  "ils": 5028,
  "uate": 5029,
  " speaking": 5030,
  "ano": 5031,
  " talks": 5032,
  " happening": 5033,
  "mas": 5034,
  "gypt": 5035,
  " organizations": 5036,
  " hate": 5037,
  " window": 5038,
  " army": 5039,
  " Good": 5040,
  " Joe": 5041,
  " none": 5042,
  "uke": 5043,
  " taxes": 5044,
  " planned": 5045,
  " Pet": 5046,
  " thanks": 5047,
  " Mary": 5048,
  " struct": 5049,
  " pit": 5050,
  " decide": 5051,
  " sudden": 5052,
  " wish": 5053,
  "lo": 5054,
  " crew": 5055,
  " carried": 5056,
  " appoint": 5057,
  "oston": 5058,
  " pet": 5059,
  "awn": 5060,
  "eless": 5061,
  "TC": 5062,
  "agues": 5063,
  "ynam": 5064,
  " regist": 5065,
  " multi": 5066,
  "idering": 5067,
  " helping": 5068,
  "Last": 5069,
  " award": 5070,
  " standards": 5071,
  " 32": 5072,
  " Fire": 5073,
  " revolution": 5074,
  " environmental": 5075,
  " Web": 5076,
  "].": 5077,
  "arsh": 5078,
  " Thomas": 5079,
  "olit": 5080,
  " script": 5081,
  "pm": 5082,
  "ola": 5083,
  " seconds": 5084,
  "gn": 5085,
  "run": 5086,
  " Research": 5087,
  " scientific": 5088,
  " Bern": 5089,
  " immigration": 5090,
  " standing": 5091,
  " Their": 5092,
  " 45": 5093,
  "stream": 5094,
  "ocol": 5095,
  " que": 5096,
  " beer": 5097,
  " domestic": 5098,
  "imal": 5099,
  "adium": 5100,
  " pair": 5101,
  "uters": 5102,
  " Also": 5103,
  " Secretary": 5104,
  " Us": 5105,
  "!\"": 5106,
  " academ": 5107,
  " cold": 5108,
  " variety": 5109,
  " markets": 5110,
  " sch": 5111,
  "fe": 5112,
  "HL": 5113,
  " territ": 5114,
  " dropped": 5115,
  " accounts": 5116,
  " Atlant": 5117,
  " filed": 5118,
  "erous": 5119,
  "acks": 5120,
  "illa": 5121,
  " balance": 5122,
  " impossible": 5123,
  " Ter": 5124,
  "aven": 5125,
  " interact": 5126,
  " neighborhood": 5127,
  " degree": 5128,
  "Read": 5129,
  " turns": 5130,
  "ores": 5131,
  "itect": 5132,
  " possibly": 5133,
  " appre": 5134,
  " operating": 5135,
  " princ": 5136,
  " alternative": 5137,
  " union": 5138,
  " votes": 5139,
  " vul": 5140,
  "ader": 5141,
  " professor": 5142,
  " tack": 5143,
  " Service": 5144,
  " increasingly": 5145,
  "ayer": 5146,
  "ruit": 5147,
  " apply": 5148,
  " fellow": 5149,
  " cuts": 5150,
  "stein": 5151,
  " honest": 5152,
  " Prime": 5153,
  " univers": 5154,
  " server": 5155,
  "vis": 5156,
  " developers": 5157,
  "arks": 5158,
  " Syrian": 5159,
  " apparently": 5160,
  "abb": 5161,
  "aren": 5162,
  " lived": 5163,
  " changing": 5164,
  " worry": 5165,
  "rastructure": 5166,
  " Carolina": 5167,
  " tests": 5168,
  " units": 5169,
  " rich": 5170,
  " Two": 5171,
  "cious": 5172,
  "icted": 5173,
  "From": 5174,
  "aded": 5175,
  "IM": 5176,
  " humans": 5177,
  " Foundation": 5178,
  " Mos": 5179,
  " agencies": 5180,
  " sounds": 5181,
  "ashed": 5182,
  " twice": 5183,
  " ultimately": 5184,
  "obby": 5185,
  " losing": 5186,
  " philos": 5187,
  " authority": 5188,
  " soldiers": 5189,
  " animal": 5191,
  "gu": 5192,
  " Images": 5193,
  " settle": 5194,
  " ath": 5195,
  " schedul": 5196,
  " mut": 5197,
  " colle": 5198,
  " corporate": 5199,
  " absolutely": 5200,
  " healthy": 5201,
  " paying": 5202,
  "och": 5203,
  " equip": 5204,
  "iams": 5205,
  " developing": 5206,
  " sea": 5207,
  " Time": 5208,
  " closer": 5209,
  " Den": 5210,
  " innov": 5211,
  "related": 5212,
  " seeking": 5213,
  " regarding": 5214,
  "coh": 5215,
  "roud": 5216,
  " skin": 5217,
  " expensive": 5218,
  "ansion": 5219,
  " possibility": 5220,
  " beautiful": 5221,
  " religion": 5222,
  " apart": 5223,
  " Central": 5224,
  " fundament": 5225,
  " experts": 5226,
  " solar": 5227,
  "65": 5228,
  " yards": 5229,
  " vast": 5230,
  " writer": 5231,
  " flight": 5232,
  " District": 5233,
  " Last": 5234,
  " deploy": 5235,
  " adjust": 5236,
  "Of": 5237,
  " internal": 5238,
  " tast": 5239,
  " Under": 5240,
  " Lat": 5241,
  "31": 5242,
  " Peter": 5243,
  "apers": 5244,
  " imagine": 5245,
  " Jon": 5246,
  "IV": 5247,
  " applications": 5248,
  "iot": 5249,
  "ologies": 5250,
  " vision": 5251,
  "look": 5252,
  "state": 5253,
  "osen": 5254,
  " Francisco": 5255,
  " Toronto": 5256,
  "den": 5257,
  " sitting": 5258,
  " Plan": 5259,
  " trail": 5260,
  " unless": 5261,
  " USA": 5262,
  " Jes": 5263,
  "isted": 5264,
  " heat": 5265,
  " 2004": 5266,
  "Even": 5267,
  " responsibility": 5268,
  "IP": 5269,
  " capacity": 5270,
  "atures": 5271,
  " Middle": 5272,
  " error": 5273,
  "aine": 5274,
  "ias": 5275,
  " symb": 5276,
  " fol": 5277,
  " arms": 5278,
  " pil": 5279,
  " gar": 5280,
  "pire": 5281,
  " covered": 5282,
  "idden": 5283,
  " Bur": 5284,
  " famous": 5285,
  " Camp": 5286,
  " forms": 5287,
  "uzz": 5288,
  "ND": 5289,
  " university": 5290,
  " guarant": 5291,
  " tight": 5292,
  " presented": 5293,
  "ortion": 5294,
  "oving": 5295,
  "enced": 5296,
  " ST": 5297,
  " Egypt": 5298,
  " earn": 5299,
  " Put": 5300,
  " convention": 5301,
  "under": 5302,
  "Just": 5303,
  " Public": 5304,
  " surprise": 5305,
  " attorney": 5306,
  " elections": 5307,
  " estimated": 5308,
  " fif": 5309,
  " Ari": 5310,
  " teen": 5311,
  " instit": 5312,
  " vehicles": 5313,
  "rible": 5314,
  " Amazon": 5315,
  "road": 5316,
  " intended": 5317,
  " rid": 5318,
  " odd": 5319,
  " helps": 5320,
  " occurred": 5321,
  "person": 5322,
  " streets": 5323,
  "uster": 5324,
  "hand": 5325,
  "ini": 5326,
  " Boston": 5327,
  " Sol": 5328,
  " =>": 5329,
  "=\"": 5330,
  " Mur": 5331,
  " sport": 5332,
  "sen": 5333,
  " determine": 5334,
  "ressive": 5335,
  " Bitcoin": 5336,
  " expert": 5337,
  "alls": 5338,
  " consult": 5339,
  "uration": 5340,
  " broken": 5341,
  "Let": 5342,
  "lets": 5343,
  " fired": 5344,
  " ton": 5345,
  " flow": 5346,
  " domin": 5347,
  " Gal": 5348,
  "porary": 5349,
  "eder": 5350,
  "LE": 5351,
  " shall": 5352,
  " reserv": 5353,
  "Up": 5354,
  " troops": 5355,
  "ION": 5356,
  " Those": 5357,
  " hyp": 5358,
  " nar": 5359,
  "terday": 5360,
  " pieces": 5361,
  " Chief": 5362,
  " prepared": 5363,
  " Mass": 5364,
  " Cath": 5365,
  " rapid": 5366,
  "gl": 5367,
  " Jo": 5368,
  "orage": 5369,
  " located": 5370,
  " Social": 5371,
  " baby": 5372,
  "----------------": 5373,
  " conclus": 5374,
  " bringing": 5375,
  "anche": 5376,
  " Prot": 5377,
  " prove": 5378,
  " specifically": 5379,
  " Any": 5380,
  " potentially": 5381,
  " sector": 5382,
  " random": 5383,
  "OW": 5384,
  " jail": 5385,
  " selling": 5386,
  " governments": 5387,
  " Once": 5388,
  " scr": 5389,
  " equal": 5390,
  "Ab": 5391,
  "class": 5392,
  "war": 5393,
  " faster": 5394,
  " heav": 5395,
  " Spr": 5396,
  " boost": 5397,
  "useum": 5398,
  "vey": 5399,
  " clin": 5400,
  " proposal": 5401,
  "oty": 5402,
  " factors": 5403,
  "TH": 5404,
  " plenty": 5405,
  " equipment": 5406,
  " council": 5407,
  " era": 5408,
  " infrastructure": 5409,
  " stress": 5410,
  "Do": 5411,
  "phas": 5412,
  " stars": 5413,
  " Journal": 5414,
  " Rub": 5415,
  "endment": 5416,
  " Virginia": 5417,
  " breat": 5418,
  " prosecut": 5419,
  " voted": 5420,
  " offering": 5421,
  " carbon": 5422,
  "inent": 5423,
  " expressed": 5424,
  " vulner": 5425,
  " combat": 5426,
  " Paris": 5427,
  " broke": 5428,
  "()": 5429,
  " clot": 5430,
  "ureau": 5431,
  "ours": 5432,
  " ruling": 5433,
  " Federal": 5434,
  " retail": 5435,
  " Guard": 5436,
  " refused": 5437,
  " dram": 5438,
  " Dan": 5439,
  " elected": 5440,
  " Open": 5441,
  " River": 5442,
  "Every": 5443,
  " secure": 5444,
  "cean": 5445,
  " seasons": 5446,
  ",'": 5447,
  " conducted": 5448,
  "ht": 5449,
  " challenges": 5450,
  " remove": 5451,
  "isher": 5452,
  " Sant": 5453,
  " methods": 5454,
  " weapon": 5455,
  "noon": 5456,
  " pointed": 5457,
  " Island": 5458,
  " master": 5459,
  " remained": 5460,
  " Australian": 5461,
  " prime": 5462,
  "ENT": 5463,
  " trig": 5464,
  " positions": 5465,
  " Cru": 5466,
  " din": 5467,
  " Mel": 5468,
  " criticism": 5469,
  "ipping": 5470,
  "First": 5471,
  "ocking": 5472,
  " Medic": 5473,
  " Please": 5474,
  "rog": 5475,
  "onom": 5476,
  "IG": 5477,
  " sale": 5478,
  "olved": 5479,
  " Fe": 5480,
  " cultural": 5481,
  "that": 5482,
  " weren": 5483,
  " significantly": 5484,
  " brow": 5485,
  "etic": 5486,
  " originally": 5487,
  "rie": 5488,
  " During": 5489,
  " affected": 5490,
  " appearance": 5491,
  " cas": 5492,
  " tourn": 5493,
  " facing": 5494,
  " greatest": 5495,
  " finish": 5496,
  " Lee": 5497,
  " stret": 5498,
  "yr": 5499,
  " youth": 5500,
  " tele": 5501,
  " Who": 5502,
  " Cur": 5503,
  " percentage": 5504,
  " Photo": 5505,
  "col": 5506,
  " determined": 5507,
  " signs": 5508,
  " involve": 5509,
  "95": 5510,
  "cel": 5511,
  "и": 5512,
  "64": 5513,
  " thank": 5514,
  " bought": 5515,
  " 500": 5516,
  "lyn": 5517,
  " Sing": 5518,
  "standing": 5519,
  " chemical": 5520,
  "ashion": 5521,
  " shape": 5522,
  " vir": 5523,
  " regime": 5524,
  " grew": 5525,
  "pired": 5526,
  " remaining": 5527,
  " Steve": 5528,
  "lymp": 5529,
  " minimum": 5530,
  " Saud": 5531,
  "reens": 5532,
  " indeed": 5533,
  " dream": 5534,
  "rier": 5535,
  "Since": 5536,
  " marg": 5537,
  "Sp": 5538,
  " Both": 5539,
  ">>": 5540,
  " mode": 5541,
  " herself": 5542,
  " voting": 5543,
  " Color": 5544,
  " obviously": 5545,
  " Force": 5546,
  " reduced": 5547,
  "ordin": 5548,
  " Nov": 5549,
  " wood": 5550,
  " Rem": 5551,
  " recorded": 5552,
  " argued": 5553,
  " 1990": 5554,
  " revenue": 5555,
  " tact": 5556,
  " Ro": 5557,
  " wearing": 5558,
  "aling": 5559,
  "ighters": 5560,
  " leads": 5561,
  "edia": 5562,
  " hun": 5563,
  " politicians": 5564,
  " plus": 5565,
  " contrast": 5566,
  " switch": 5567,
  " handle": 5568,
  " purchase": 5569,
  " thr": 5570,
  " subs": 5571,
  " concent": 5572,
  " proced": 5573,
  "т": 5574,
  " agent": 5575,
  "arp": 5576,
  " Williams": 5577,
  " appreci": 5578,
  " experienced": 5579,
  " hurt": 5580,
  "top": 5581,
  " excited": 5582,
  " videos": 5583,
  " https": 5584,
  "cohol": 5585,
  " supporting": 5586,
  "DP": 5587,
  " Haw": 5588,
  "mm": 5589,
  "ownt": 5590,
  " surprising": 5591,
  " Free": 5592,
  " minute": 5593,
  "odd": 5594,
  " explos": 5595,
  " belong": 5596,
  " consumers": 5597,
  " identify": 5598,
  " considering": 5599,
  " Pac": 5600,
  " Conserv": 5601,
  "ller": 5602,
  "apter": 5603,
  " aircraft": 5604,
  " rent": 5605,
  " aid": 5606,
  " pulled": 5607,
  "CL": 5608,
  "gment": 5609,
  " basically": 5610,
  " differences": 5611,
  "ogue": 5612,
  " Book": 5613,
  " glass": 5614,
  " afternoon": 5615,
  " shift": 5616,
  " diss": 5617,
  " Rad": 5618,
  " depart": 5619,
  " ends": 5620,
  "essions": 5621,
  " turning": 5622,
  " bound": 5623,
  " films": 5624,
  " spring": 5625,
  " prospect": 5626,
  "ruption": 5627,
  "ket": 5628,
  " Charl": 5629,
  "hab": 5630,
  " mort": 5631,
  "05": 5632,
  "life": 5633,
  " treated": 5634,
  " accident": 5635,
  ",[": 5636,
  "01": 5637,
  " motiv": 5638,
  " listen": 5639,
  " seat": 5640,
  " Power": 5641,
  "uts": 5642,
  " combined": 5643,
  " construct": 5644,
  " seriously": 5645,
  "Ind": 5646,
  " privacy": 5647,
  "apping": 5648,
  " evening": 5649,
  "hered": 5650,
  "hy": 5651,
  " opportunities": 5652,
  "asp": 5653,
  " struggle": 5654,
  " 195": 5655,
  " panel": 5656,
  " enemy": 5657,
  " lots": 5658,
  " completed": 5659,
  " Daily": 5660,
  " visual": 5661,
  "His": 5662,
  "Phone": 5663,
  "pet": 5664,
  " talked": 5665,
  " cart": 5666,
  " hopes": 5667,
  "oral": 5668,
  " passing": 5669,
  " id": 5670,
  " apps": 5671,
  "osite": 5672,
  "PD": 5673,
  " calcul": 5674,
  "Another": 5675,
  " widely": 5676,
  "ensions": 5677,
  " emergency": 5678,
  " Hol": 5679,
  " Show": 5680,
  " suit": 5681,
  " element": 5682,
  "amm": 5683,
  " ast": 5684,
  "SS": 5685,
  "anged": 5686,
  "aled": 5687,
  "ucks": 5688,
  " powers": 5689,
  "ato": 5690,
  " Rel": 5691,
  " BBC": 5692,
  "TV": 5693,
  " Olymp": 5694,
  " burn": 5695,
  " discl": 5696,
  "Pe": 5697,
  " plants": 5698,
  " flat": 5699,
  " Space": 5700,
  " liberal": 5701,
  "raud": 5702,
  "obe": 5703,
  " opposed": 5704,
  "Well": 5705,
  " proceed": 5706,
  "ompl": 5707,
  " copyright": 5708,
  "oking": 5709,
  " Project": 5710,
  " advance": 5711,
  " factor": 5712,
  " distance": 5713,
  " 2003": 5714,
  "ivered": 5715,
  " dismiss": 5716,
  "plom": 5717,
  " attempts": 5718,
  " tun": 5719,
  " Matt": 5720,
  " Road": 5721,
  "abilities": 5722,
  "Am": 5723,
  "ributed": 5724,
  " trouble": 5725,
  " IN": 5726,
  "unction": 5727,
  " hol": 5728,
  " collabor": 5729,
  " default": 5730,
  "sts": 5731,
  "idel": 5732,
  " Bet": 5733,
  " zone": 5734,
  " Jackson": 5735,
  " upgr": 5736,
  "rawn": 5737,
  "ita": 5738,
  " reaction": 5739,
  "Cont": 5740,
  " storm": 5741,
  " reporters": 5742,
  "PR": 5743,
  " Mem": 5744,
  " frust": 5745,
  "nell": 5746,
  "mosp": 5747,
  "adow": 5748,
  " writes": 5749,
  "mond": 5750,
  "aints": 5751,
  " typically": 5752,
  " Today": 5753,
  "lines": 5754,
  "UT": 5755,
  "respond": 5756,
  " pages": 5757,
  " instruct": 5758,
  "ternal": 5759,
  "eds": 5760,
  " reference": 5761,
  " package": 5762,
  " bodies": 5763,
  "zer": 5764,
  " matters": 5765,
  "free": 5766,
  "42": 5767,
  " denied": 5768,
  "care": 5769,
  "edd": 5770,
  " quant": 5771,
  " disappoint": 5772,
  "App": 5773,
  " sem": 5774,
  " explo": 5775,
  " NAS": 5776,
  " optim": 5777,
  "ache": 5778,
  " quiet": 5779,
  " entertain": 5780,
  " mal": 5781,
  " responded": 5782,
  " approved": 5783,
  " Turkey": 5784,
  " satisf": 5785,
  "aped": 5786,
  " broadcast": 5787,
  "esters": 5788,
  " institutions": 5789,
  " advert": 5790,
  " stands": 5791,
  " Director": 5792,
  " sets": 5793,
  "estival": 5794,
  " elimin": 5795,
  "isters": 5796,
  "razy": 5797,
  "ä": 5798,
  " Penn": 5799,
  "host": 5800,
  " valid": 5801,
  " renew": 5802,
  "Rep": 5803,
  " Ohio": 5804,
  "elly": 5805,
  "0000": 5806,
  " split": 5807,
  " severe": 5808,
  " William": 5809,
  " sac": 5810,
  " capable": 5811,
  " 2001": 5812,
  " //": 5813,
  " pitch": 5814,
  "abin": 5815,
  "aniel": 5816,
  " caption": 5817,
  " cloud": 5818,
  " loved": 5819,
  " technical": 5820,
  " giant": 5821,
  "pass": 5822,
  " cann": 5823,
  " tradition": 5824,
  "rant": 5825,
  " prompt": 5826,
  " bull": 5827,
  " confident": 5828,
  "uous": 5829,
  " confidence": 5830,
  " numerous": 5831,
  " reportedly": 5832,
  " Ma": 5833,
  " faces": 5834,
  "],": 5835,
  "writ": 5836,
  " weather": 5837,
  " fly": 5838,
  " transition": 5839,
  "rid": 5840,
  " 36": 5841,
  " System": 5842,
  " Afghanistan": 5843,
  " gra": 5844,
  " Squ": 5845,
  " creation": 5846,
  " perspective": 5847,
  "De": 5848,
  " unable": 5849,
  " forget": 5850,
  " Labour": 5851,
  " Yet": 5852,
  "43": 5853,
  "astern": 5854,
  "employ": 5855,
  "oken": 5856,
  "II": 5857,
  " Media": 5858,
  "angers": 5859,
  "unte": 5860,
  " craft": 5861,
  " substant": 5862,
  " cooper": 5863,
  " violent": 5864,
  " suffered": 5865,
  "ilit": 5866,
  " coast": 5867,
  " mand": 5868,
  "ampion": 5869,
  " pictures": 5870,
  " experiences": 5871,
  " approx": 5872,
  "abled": 5873,
  " route": 5874,
  "88": 5875,
  "sex": 5876,
  " flag": 5877,
  " advice": 5878,
  " Andrew": 5879,
  "usiness": 5880,
  " declared": 5881,
  " Wal": 5882,
  " ordered": 5883,
  " Human": 5884,
  "razil": 5885,
  " crimes": 5886,
  " coff": 5887,
  "Se": 5888,
  " proud": 5889,
  "ishes": 5890,
  " reporting": 5891,
  " messages": 5892,
  " circumst": 5893,
  " findings": 5894,
  " Lin": 5895,
  "Res": 5896,
  " eval": 5897,
  "ulations": 5898,
  " excell": 5899,
  "Over": 5900,
  " declined": 5901,
  " explains": 5902,
  " delay": 5903,
  " \\": 5904,
  " Follow": 5905,
  " newspaper": 5906,
  "ounded": 5907,
  " connected": 5908,
  "ilty": 5909,
  " shouldn": 5910,
  "evin": 5911,
  "oves": 5912,
  " ongoing": 5913,
  "can": 5914,
  " van": 5915,
  "dule": 5916,
  " movies": 5917,
  " picked": 5918,
  "ionally": 5919,
  "resents": 5920,
  "77": 5921,
  " admitted": 5922,
  " delivered": 5923,
  " guns": 5924,
  "During": 5925,
  " ML": 5926,
  " Scot": 5927,
  " walking": 5928,
  " agents": 5929,
  "called": 5930,
  " prin": 5931,
  "tion": 5932,
  " editor": 5933,
  " thoughts": 5934,
  " married": 5935,
  " Tra": 5936,
  " auth": 5937,
  " emails": 5938,
  " appropriate": 5939,
  " emphas": 5940,
  "uations": 5941,
  " edge": 5942,
  " architect": 5943,
  " Grand": 5944,
  " leaves": 5945,
  " updates": 5946,
  "OD": 5947,
  " accompl": 5948,
  " gather": 5949,
  " Muslims": 5950,
  " forg": 5951,
  "ansas": 5952,
  " Wood": 5953,
  " quarterback": 5954,
  " session": 5955,
  "ooth": 5956,
  "41": 5957,
  " Techn": 5958,
  " pool": 5959,
  " Science": 5960,
  "cos": 5961,
  " injured": 5962,
  "arn": 5963,
  " publicly": 5964,
  "ellow": 5965,
  " Sov": 5966,
  " statements": 5967,
  " perman": 5968,
  " legit": 5969,
  "arl": 5970,
  "MA": 5971,
  "nergy": 5972,
  " confirm": 5973,
  " Lake": 5974,
  " ourselves": 5975,
  "TA": 5976,
  "Other": 5977,
  " realize": 5978,
  " rot": 5979,
  " drivers": 5980,
  " Av": 5981,
  " Dou": 5982,
  "mates": 5983,
  ",’": 5984,
  " armed": 5985,
  "essor": 5986,
  " dial": 5987,
  "cons": 5988,
  " lawyer": 5989,
  "ourney": 5990,
  " rail": 5991,
  " readers": 5992,
  "reland": 5993,
  " sad": 5994,
  " contains": 5995,
  " argue": 5996,
  " Rev": 5997,
  " talent": 5998,
  " filled": 5999,
  " Sum": 6000,
  " allegations": 6001,
  " activists": 6002,
  " Christmas": 6003,
  " dynam": 6004,
  " 1980": 6005,
  " Michigan": 6006,
  "date": 6007,
  " Back": 6008,
  " Ron": 6009,
  " crack": 6010,
  " transform": 6011,
  "Tube": 6012,
  " Ill": 6013,
  " buildings": 6014,
  " Read": 6015,
  "long": 6016,
  " wear": 6017,
  "Many": 6018,
  " terrorist": 6019,
  " sam": 6020,
  " tree": 6021,
  " exercise": 6022,
  "enda": 6023,
  " label": 6024,
  " effectively": 6025,
  "Oh": 6026,
  " practices": 6027,
  "TS": 6028,
  "ala": 6029,
  " subsequ": 6030,
  " Jul": 6031,
  " Sher": 6032,
  "uls": 6033,
  " flo": 6034,
  " fish": 6035,
  "ette": 6036,
  "enture": 6037,
  " shop": 6038,
  " examples": 6039,
  " Hy": 6040,
  " patient": 6041,
  " Gen": 6042,
  " Seattle": 6043,
  " objects": 6044,
  " tech": 6045,
  " See": 6046,
  " secretary": 6047,
  "asure": 6048,
  " rain": 6049,
  " missed": 6050,
  " causes": 6051,
  "illy": 6052,
  "rum": 6053,
  " debut": 6054,
  " Rod": 6055,
  "gia": 6056,
  " essentially": 6057,
  "66": 6058,
  "amin": 6059,
  " moral": 6060,
  "orders": 6061,
  "ador": 6062,
  "word": 6063,
  "acter": 6064,
  " Work": 6065,
  "arters": 6066,
  "def": 6067,
  " Ukraine": 6068,
  " centre": 6069,
  "Follow": 6070,
  " Vict": 6071,
  "bur": 6072,
  " Stan": 6073,
  " ID": 6074,
  "icing": 6075,
  " injuries": 6076,
  " Phot": 6077,
  " motor": 6078,
  " iPhone": 6079,
  " artist": 6080,
  " client": 6081,
  " bond": 6082,
  " thinks": 6083,
  "iat": 6084,
  "orse": 6085,
  "ouston": 6086,
  " pure": 6087,
  " hell": 6088,
  "Although": 6089,
  " Saudi": 6090,
  "��": 27171,
  " facts": 6092,
  " desire": 6093,
  "agers": 6094,
  "aza": 6095,
  " ske": 6096,
  "orry": 6097,
  " linked": 6098,
  "í": 6099,
  " governor": 6100,
  " materials": 6101,
  " performed": 6102,
  "Spe": 6103,
  " franch": 6104,
  "esome": 6105,
  " suc": 6106,
  " philosoph": 6107,
  " initially": 6108,
  "iest": 6109,
  " Sign": 6110,
  " necessarily": 6111,
  " Bat": 6112,
  " Fer": 6113,
  " expansion": 6114,
  " scheduled": 6115,
  "water": 6116,
  " warned": 6117,
  "ERS": 6118,
  " diplom": 6119,
  " advanced": 6120,
  " ing": 6121,
  " explan": 6122,
  " vari": 6123,
  " everybody": 6124,
  " joint": 6125,
  " decre": 6126,
  " resolution": 6127,
  " increases": 6128,
  "enger": 6129,
  "Yes": 6130,
  " accepted": 6131,
  " incor": 6132,
  " myster": 6133,
  " faced": 6134,
  " bare": 6135,
  "illance": 6136,
  " Mount": 6137,
  " announcement": 6138,
  " follows": 6139,
  " nations": 6140,
  " playoff": 6141,
  " Life": 6142,
  " abandon": 6143,
  " Second": 6144,
  " radical": 6145,
  " athlet": 6146,
  " neither": 6147,
  " yesterday": 6148,
  "gent": 6149,
  " datab": 6150,
  " nearby": 6151,
  " distribution": 6152,
  "otic": 6153,
  " applied": 6154,
  "irty": 6155,
  " magazine": 6156,
  "athan": 6157,
  "Most": 6158,
  "rich": 6159,
  " mir": 6160,
  " consequences": 6161,
  " doctor": 6162,
  " listed": 6163,
  " fort": 6164,
  "uy": 6165,
  " Columb": 6166,
  " atmosp": 6167,
  " surprised": 6168,
  "American": 6169,
  " offense": 6170,
  "Qu": 6171,
  "itors": 6172,
  " CNN": 6173,
  " RE": 6174,
  " spons": 6175,
  " begins": 6176,
  " Week": 6177,
  " threats": 6178,
  "sembly": 6179,
  " represents": 6180,
  " Jews": 6181,
  " GM": 6182,
  " Aff": 6183,
  " enh": 6184,
  " moves": 6185,
  " remark": 6186,
  " TO": 6187,
  " pra": 6188,
  " songs": 6189,
  "kay": 6190,
  " chart": 6191,
  " behavi": 6192,
  "omin": 6193,
  " ride": 6194,
  " adds": 6195,
  " withd": 6196,
  "Â": 6197,
  " improved": 6198,
  "Can": 6199,
  " phen": 6200,
  " Blue": 6201,
  " bot": 6202,
  " warm": 6203,
  " af": 6204,
  " alcohol": 6205,
  "rip": 6206,
  " AT": 6207,
  " output": 6208,
  "law": 6209,
  " flood": 6210,
  " Develop": 6211,
  " Hen": 6212,
  "whel": 6213,
  "edy": 6214,
  " shots": 6215,
  " fill": 6216,
  " Vol": 6217,
  " alt": 6218,
  " stood": 6219,
  " brings": 6220,
  " pushed": 6221,
  " guilty": 6222,
  " Romney": 6223,
  " Kim": 6224,
  " subscrib": 6225,
  "85": 6226,
  " entry": 6227,
  "ocratic": 6228,
  " Brazil": 6229,
  " democracy": 6230,
  " boys": 6231,
  " 33": 6232,
  " row": 6233,
  " Swed": 6234,
  " config": 6235,
  " restaurant": 6236,
  " NBA": 6237,
  " lawsuit": 6238,
  " Dev": 6239,
  " Ireland": 6240,
  "acle": 6241,
  " manufacture": 6242,
  " receiving": 6243,
  " rein": 6244,
  " Barack": 6245,
  "Then": 6246,
  " trib": 6247,
  " totally": 6248,
  " Only": 6249,
  " discussed": 6250,
  " sought": 6251,
  " rising": 6252,
  " entered": 6253,
  " ISIS": 6254,
  " Board": 6255,
  " consistent": 6256,
  " historical": 6257,
  "twitter": 6258,
  "ideo": 6259,
  " storage": 6260,
  " correspond": 6261,
  " plane": 6262,
  " combination": 6263,
  " scored": 6264,
  " input": 6265,
  " 300": 6266,
  " symbol": 6267,
  " bright": 6268,
  " button": 6269,
  "irds": 6270,
  " succeed": 6271,
  "stood": 6272,
  " creative": 6273,
  " investors": 6274,
  " square": 6275,
  " articles": 6276,
  " 2002": 6277,
  " island": 6278,
  "mes": 6279,
  " deaths": 6280,
  " functions": 6281,
  " networks": 6282,
  " classes": 6283,
  " unlikely": 6284,
  "alty": 6285,
  " heads": 6286,
  "ician": 6287,
  " boss": 6288,
  " native": 6289,
  "icious": 6290,
  " lie": 6291,
  " sav": 6292,
  " Lib": 6293,
  " roughly": 6294,
  " consumer": 6295,
  " Str": 6296,
  " Whe": 6297,
  " Walk": 6298,
  " Prem": 6299,
  "fortunately": 6300,
  " Ms": 6301,
  " string": 6302,
  " Maybe": 6303,
  " heavily": 6304,
  " Another": 6305,
  " fairly": 6306,
  " temperature": 6307,
  "arden": 6308,
  " kit": 6309,
  " existence": 6310,
  " Its": 6311,
  " Asia": 6312,
  " contest": 6313,
  " plot": 6314,
  "Add": 6315,
  "issions": 6316,
  "dis": 6317,
  " Cub": 6318,
  " resident": 6319,
  "usal": 6320,
  " targets": 6321,
  " Bob": 6322,
  " resc": 6323,
  " Korean": 6324,
  "ican": 6325,
  "duc": 6326,
  " lock": 6327,
  " younger": 6328,
  "Man": 6329,
  "',": 6330,
  " colleagues": 6331,
  "PU": 6332,
  " library": 6333,
  "ö": 6334,
  " rally": 6335,
  " parliament": 6336,
  " protests": 6337,
  " anywhere": 6338,
  "oked": 6339,
  " Sports": 6340,
  " Sky": 6341,
  " bike": 6342,
  "zona": 6343,
  " breaking": 6344,
  "ii": 6345,
  " grab": 6346,
  " sym": 6347,
  " stores": 6348,
  " expression": 6349,
  " waste": 6350,
  " chain": 6351,
  " blow": 6352,
  " warning": 6353,
  " importance": 6354,
  " defined": 6355,
  " buying": 6356,
  " manage": 6357,
  " prohib": 6358,
  " classic": 6359,
  " cere": 6360,
  " snow": 6361,
  " adults": 6362,
  " illust": 6363,
  " Each": 6364,
  "See": 6365,
  " marketing": 6366,
  "Ob": 6367,
  " links": 6368,
  "ó": 6369,
  "iques": 6370,
  " shif": 6371,
  "born": 6372,
  "andal": 6373,
  " Club": 6374,
  " tow": 6375,
  "OC": 6376,
  " Hist": 6377,
  " fraud": 6378,
  " facility": 6379,
  "ollywood": 6380,
  "erences": 6381,
  " hardware": 6382,
  " schol": 6383,
  " allegedly": 6384,
  " 37": 6385,
  " regulations": 6386,
  "pret": 6387,
  " doctors": 6388,
  " bon": 6389,
  " Colorado": 6390,
  " currency": 6391,
  " household": 6392,
  " replaced": 6393,
  "agan": 6394,
  " essential": 6395,
  "opy": 6396,
  " empt": 6397,
  "onna": 6398,
  " Ram": 6399,
  " somewhat": 6400,
  " Div": 6401,
  "86": 6402,
  "press": 6403,
  " nav": 6404,
  " favour": 6405,
  "power": 6406,
  " promise": 6407,
  " DC": 6408,
  " Boy": 6409,
  " laugh": 6410,
  "ena": 6411,
  " Rights": 6412,
  "Pol": 6413,
  " holds": 6414,
  " opposite": 6415,
  "ocket": 6416,
  "с": 6417,
  " moments": 6418,
  "west": 6419,
  " hat": 6420,
  "tering": 6421,
  " opponent": 6422,
  " bug": 6423,
  " Far": 6424,
  "cho": 6425,
  " campus": 6426,
  " acts": 6427,
  " rum": 6428,
  "etroit": 6429,
  " versions": 6430,
  " motion": 6431,
  " metal": 6432,
  "hips": 6433,
  " evolution": 6434,
  "ometimes": 6435,
  " vice": 6436,
  "anish": 6437,
  " relevant": 6438,
  " sees": 6439,
  " Image": 6440,
  " bag": 6441,
  " industrial": 6442,
  "IR": 6443,
  " zero": 6444,
  " sick": 6445,
  " downt": 6446,
  "oma": 6447,
  " closely": 6448,
  " Ann": 6449,
  "hetic": 6450,
  " emotional": 6451,
  "chen": 6452,
  "IF": 6453,
  "game": 6454,
  " Year": 6455,
  " YouTube": 6456,
  "va": 6457,
  " fewer": 6458,
  " division": 6459,
  "olve": 6460,
  " adm": 6461,
  " harder": 6462,
  " customer": 6463,
  " hoping": 6464,
  "ologist": 6465,
  " tom": 6466,
  " Brook": 6467,
  "Donald": 6468,
  "En": 6469,
  " Valley": 6470,
  " hur": 6471,
  " Gra": 6472,
  " mechanism": 6473,
  "ittle": 6474,
  "ml": 6475,
  " Houston": 6476,
  " Elect": 6477,
  "inem": 6478,
  " returns": 6479,
  "NC": 6480,
  "atell": 6481,
  " volunte": 6482,
  " participants": 6483,
  " extent": 6484,
  " intention": 6485,
  "po": 6486,
  "alian": 6487,
  "esc": 6488,
  "ellect": 6489,
  " excellent": 6490,
  " Soviet": 6491,
  " acknowled": 6492,
  " syn": 6493,
  "ulous": 6494,
  "oming": 6495,
  " Mot": 6496,
  " batt": 6497,
  " Games": 6498,
  " squad": 6499,
  "greg": 6500,
  " circumstances": 6501,
  "pan": 6502,
  " fashion": 6503,
  " isol": 6504,
  "ü": 6505,
  "otal": 6506,
  " immediate": 6507,
  " Eric": 6508,
  " suffering": 6509,
  " Watch": 6510,
  "str": 6511,
  " lies": 6512,
  " tiny": 6513,
  " authors": 6514,
  " 38": 6515,
  " grown": 6516,
  " Gar": 6517,
  "iger": 6518,
  "efully": 6519,
  " immigrants": 6520,
  "Ã": 6521,
  "print": 6522,
  "ora": 6523,
  " kinds": 6524,
  "utch": 6525,
  " 49": 6526,
  " Die": 6527,
  " cheap": 6528,
  " mine": 6529,
  " detailed": 6530,
  "ordan": 6531,
  " Hel": 6532,
  "name": 6533,
  " featured": 6534,
  " Wik": 6535,
  " Er": 6536,
  " Sar": 6537,
  "ayers": 6538,
  " meat": 6539,
  " unus": 6540,
  " Aut": 6541,
  " competitive": 6542,
  " describe": 6543,
  " formed": 6544,
  " Home": 6545,
  " IP": 6546,
  "friend": 6547,
  "nic": 6548,
  "certain": 6549,
  " carrying": 6550,
  " tournament": 6551,
  " termin": 6552,
  " trick": 6553,
  " relationships": 6554,
  " fundamental": 6555,
  "kel": 6556,
  " wave": 6557,
  " cycle": 6558,
  "obb": 6559,
  " crazy": 6560,
  " Cy": 6561,
  " signing": 6562,
  " Way": 6563,
  " guide": 6564,
  " wins": 6565,
  " Catholic": 6566,
  " earned": 6567,
  "08": 6568,
  " decline": 6569,
  " regional": 6570,
  "nam": 6571,
  "ensus": 6572,
  "style": 6573,
  " embr": 6574,
  " strange": 6575,
  " Palestinian": 6576,
  " Jesus": 6577,
  " Long": 6578,
  " ancient": 6579,
  " frequently": 6580,
  "06": 6581,
  " acting": 6582,
  " Putin": 6583,
  " manner": 6584,
  " efficient": 6585,
  "rome": 6586,
  " pushing": 6587,
  " CIA": 6588,
  " comfortable": 6589,
  " Card": 6590,
  " pip": 6591,
  "ORE": 6592,
  " sharing": 6593,
  "Per": 6594,
  " wire": 6595,
  " skill": 6596,
  " Econom": 6597,
  "ockey": 6598,
  "chers": 6599,
  " instru": 6600,
  " Ell": 6601,
  " owned": 6602,
  "bar": 6603,
  " commitment": 6604,
  " alongside": 6605,
  " OF": 6606,
  "uated": 6607,
  "anes": 6608,
  " Lord": 6609,
  "09": 6610,
  " Davis": 6611,
  "rison": 6612,
  " controversial": 6613,
  " artists": 6614,
  " referred": 6615,
  "weight": 6616,
  " egg": 6617,
  " mouth": 6618,
  " repeatedly": 6619,
  " 48": 6620,
  " Top": 6621,
  " 34": 6623,
  "awa": 6624,
  " attempted": 6625,
  " femin": 6626,
  "umber": 6627,
  "FP": 6628,
  " updated": 6629,
  "foot": 6630,
  " cert": 6631,
  "ua": 6632,
  " pregn": 6633,
  " Old": 6634,
  " schedule": 6635,
  "vin": 6636,
  "xy": 6637,
  " PS": 6638,
  "amily": 6639,
  "adel": 6640,
  " dedicated": 6641,
  "н": 6642,
  " AL": 6643,
  " sentence": 6644,
  " upcoming": 6645,
  " Right": 6646,
  " NY": 6647,
  " Down": 6648,
  " Di": 6649,
  " column": 6650,
  "hus": 6651,
  " depth": 6652,
  " pled": 6653,
  " virtual": 6654,
  "uable": 6655,
  " journey": 6656,
  " struck": 6657,
  "р": 6658,
  " desk": 6659,
  " studio": 6660,
  " realized": 6661,
  " Energy": 6662,
  "Despite": 6663,
  "ceived": 6664,
  "%)": 6665,
  "ographic": 6666,
  "DS": 6667,
  "ko": 6668,
  "ugh": 6669,
  " medic": 6670,
  " serving": 6671,
  "iami": 6672,
  " walked": 6673,
  "rive": 6674,
  "iveness": 6675,
  " king": 6676,
  " ring": 6677,
  " reput": 6678,
  "you": 6679,
  " urban": 6680,
  "phy": 6681,
  "07": 6682,
  " Cle": 6683,
  " Charles": 6684,
  " Wild": 6685,
  " targeted": 6686,
  " channel": 6687,
  " assets": 6688,
  "luding": 6689,
  " tort": 6690,
  " inspired": 6691,
  " hotel": 6692,
  " Arizona": 6693,
  " posts": 6694,
  " newslet": 6695,
  "Like": 6696,
  " Supp": 6697,
  " universe": 6698,
  " agenda": 6699,
  "Two": 6700,
  " causing": 6701,
  " watched": 6702,
  " suicide": 6703,
  " stream": 6704,
  " overwhel": 6705,
  " Py": 6706,
  " usual": 6707,
  " surveillance": 6708,
  " Men": 6709,
  " intent": 6710,
  "sole": 6711,
  " liqu": 6712,
  "People": 6713,
  " sister": 6714,
  " opponents": 6715,
  " chairman": 6716,
  " du": 6717,
  " Wars": 6718,
  " Cruz": 6719,
  " mainstream": 6720,
  "gor": 6721,
  "bel": 6722,
  " latter": 6723,
  " hall": 6724,
  " surrounding": 6725,
  " folks": 6726,
  " knowing": 6727,
  " orders": 6728,
  " Inf": 6729,
  " remote": 6730,
  " 75": 6731,
  " sand": 6732,
  " literally": 6733,
  " Java": 6734,
  " observed": 6735,
  " Again": 6736,
  " subsid": 6737,
  "Fr": 6738,
  " Defense": 6739,
  " infl": 6740,
  " approval": 6741,
  "acc": 6742,
  " Van": 6743,
  "iments": 6744,
  " basket": 6745,
  "rence": 6746,
  "burg": 6747,
  " teachers": 6748,
  "azi": 6749,
  "avor": 6750,
  "izz": 6751,
  " winter": 6752,
  "iciency": 6753,
  "alle": 6754,
  " exciting": 6755,
  "aze": 6756,
  "iro": 6757,
  "aylor": 6758,
  " Tal": 6759,
  " format": 6760,
  "boy": 6761,
  " congress": 6762,
  " protected": 6763,
  "ati": 6764,
  " noticed": 6765,
  " simpl": 6766,
  " dealing": 6767,
  " Young": 6768,
  "rations": 6769,
  " Child": 6770,
  " precise": 6771,
  "67": 6772,
  "xual": 6773,
  " deeply": 6774,
  "ipl": 6775,
  " communication": 6776,
  " gang": 6777,
  " sending": 6778,
  " forth": 6779,
  " Jr": 6780,
  " fasc": 6781,
  " battery": 6782,
  " wal": 6783,
  "mun": 6784,
  " sky": 6785,
  " narr": 6786,
  " fixed": 6787,
  "abis": 6788,
  " aside": 6789,
  " requirements": 6790,
  "post": 6791,
  "Int": 6792,
  " properties": 6793,
  "rors": 6794,
  " alive": 6795,
  " narrow": 6796,
  " wake": 6797,
  " passion": 6798,
  "allas": 6799,
  " Arch": 6800,
  "onymous": 6801,
  " eating": 6802,
  "Or": 6803,
  "ensity": 6804,
  " mistake": 6805,
  "woman": 6806,
  " explore": 6807,
  " coffee": 6808,
  " Pan": 6809,
  " 1970": 6810,
  " rape": 6811,
  " volume": 6812,
  " promised": 6813,
  " diet": 6814,
  "acking": 6815,
  " risks": 6816,
  " exhib": 6817,
  " Polit": 6818,
  " Fort": 6819,
  " sweet": 6820,
  "May": 6821,
  "’.": 6822,
  " Enter": 6823,
  " Wat": 6824,
  " neut": 6825,
  " involving": 6826,
  " wage": 6827,
  " selection": 6828,
  " Max": 6829,
  " tested": 6830,
  "ether": 6831,
  " flu": 6832,
  "ulture": 6833,
  " defeat": 6834,
  " northern": 6835,
  " reward": 6836,
  " welcome": 6837,
  " Cast": 6838,
  " extended": 6839,
  " puts": 6840,
  " territory": 6841,
  " phenomen": 6842,
  " unemploy": 6843,
  " refugees": 6844,
  " sample": 6845,
  " height": 6846,
  " approximately": 6847,
  " Kevin": 6848,
  "59": 6849,
  " blame": 6850,
  " Brad": 6851,
  " anyway": 6852,
  "ums": 6853,
  " Detroit": 6854,
  " destroyed": 6855,
  "obile": 6856,
  "ta": 6857,
  " impressive": 6858,
  " Stephen": 6859,
  "asks": 6860,
  " god": 6861,
  " proof": 6862,
  " gap": 6863,
  " dry": 6864,
  " crash": 6866,
  " unknown": 6867,
  " locations": 6868,
  "04": 6869,
  "igg": 6870,
  " selected": 6871,
  "apse": 6872,
  "anges": 6873,
  " west": 6874,
  "gery": 6875,
  "stone": 6876,
  " Fil": 6877,
  " attacked": 6878,
  " maximum": 6879,
  " Miller": 6880,
  " Wilson": 6881,
  " Tit": 6882,
  " promote": 6883,
  " shel": 6884,
  "aser": 6885,
  " merely": 6886,
  " franchise": 6887,
  "arry": 6888,
  "lv": 6889,
  " requests": 6890,
  " sho": 6891,
  " retire": 6892,
  " suddenly": 6893,
  " slowly": 6894,
  " protesters": 6895,
  " disag": 6896,
  "dro": 6897,
  " teacher": 6898,
  "ixt": 6899,
  " typical": 6900,
  "ogan": 6901,
  " Women": 6902,
  " Ins": 6903,
  "ingu": 6904,
  " conver": 6905,
  "list": 6906,
  " chose": 6907,
  " Camer": 6908,
  " Class": 6909,
  " Lu": 6910,
  " matches": 6911,
  " prote": 6912,
  " license": 6913,
  " properly": 6914,
  " assume": 6915,
  "oration": 6916,
  " discover": 6917,
  "03": 6918,
  " wid": 6919,
  " PR": 6920,
  " Mic": 6921,
  "Rel": 6922,
  " worried": 6923,
  " moder": 6924,
  "fire": 6925,
  " abortion": 6926,
  "owered": 6927,
  " allies": 6928,
  "ao": 6929,
  " oblig": 6930,
  " terrorism": 6931,
  "02": 6932,
  " supports": 6933,
  "uilding": 6935,
  "ÃÂ": 6936,
  "inson": 6937,
  "verty": 6938,
  " arguments": 6939,
  " adapt": 6940,
  " theme": 6941,
  " confront": 6942,
  " facilities": 6943,
  " sustain": 6944,
  "gender": 6945,
  " east": 6946,
  " pal": 6947,
  " recognize": 6948,
  "igure": 6949,
  " fuck": 6950,
  "ÃÂÃÂ": 6951,
  "lies": 6952,
  " equival": 6953,
  "mo": 6954,
  " obtained": 6955,
  " poverty": 6956,
  " rub": 6957,
  " Italy": 6958,
  " nomine": 6959,
  " deals": 6960,
  " fees": 6961,
  "alo": 6962,
  "itarian": 6963,
  "osis": 6964,
  " Hollywood": 6965,
  " understood": 6966,
  " controlled": 6967,
  "VER": 6968,
  " Best": 6969,
  " Dam": 6970,
  " topic": 6971,
  " critics": 6972,
  " Society": 6973,
  " Agency": 6974,
  "axy": 6975,
  " Ford": 6976,
  " sole": 6977,
  " Jersey": 6978,
  "arity": 6979,
  " village": 6980,
  " diagn": 6981,
  " Administ": 6982,
  "raid": 6983,
  "68": 6984,
  " likes": 6985,
  "celer": 6986,
  "han": 6987,
  "sters": 6988,
  " Four": 6989,
  " evil": 6990,
  " punish": 6991,
  "Te": 6992,
  " dress": 6993,
  "cript": 6994,
  " ped": 6995,
  " Georgia": 6996,
  " bunch": 6997,
  " Company": 6998,
  " journalists": 6999,
  "John": 7000,
  " exposed": 7001,
  " regions": 7002,
  "redit": 7003,
  "ocation": 7004,
  " scheme": 7005,
  " communications": 7006,
  " transp": 7007,
  " stim": 7008,
  " limits": 7009,
  " somehow": 7010,
  " strongly": 7011,
  " honor": 7012,
  " drag": 7013,
  " resistance": 7014,
  "lls": 7015,
  "aire": 7016,
  "aug": 7017,
  " champion": 7018,
  " Labor": 7019,
  " constant": 7020,
  " phase": 7021,
  "asts": 7022,
  " Carl": 7023,
  "pool": 7024,
  " NASA": 7025,
  " profit": 7026,
  " truck": 7027,
  " condem": 7028,
  " escape": 7029,
  " personally": 7030,
  " Night": 7031,
  " Dun": 7032,
  "rimination": 7033,
  " Land": 7034,
  " bid": 7035,
  "CA": 7036,
  " NHL": 7037,
  " Stand": 7038,
  " vacc": 7039,
  " deck": 7040,
  "nesota": 7041,
  "iform": 7042,
  " falling": 7043,
  "GBT": 7044,
  " Network": 7045,
  " somewhere": 7046,
  "ems": 7047,
  "cers": 7048,
  " employee": 7049,
  " harass": 7050,
  "ads": 7051,
  " bear": 7052,
  " CD": 7053,
  "iner": 7054,
  " comparison": 7055,
  "orted": 7056,
  "ciples": 7057,
  " polls": 7058,
  "owa": 7059,
  " inqu": 7060,
  " Love": 7061,
  "pected": 7062,
  " southern": 7063,
  "oric": 7064,
  " decent": 7065,
  "cow": 7066,
  " Spanish": 7067,
  " encourage": 7068,
  " emissions": 7069,
  " 39": 7070,
  " Kn": 7071,
  " View": 7072,
  "enders": 7073,
  " empty": 7074,
  "oster": 7075,
  " Miami": 7076,
  " hits": 7077,
  " Cam": 7078,
  " definition": 7079,
  "57": 7080,
  " pic": 7081,
  "wan": 7082,
  " directed": 7083,
  "pes": 7084,
  " flex": 7085,
  "zens": 7086,
  " Ok": 7087,
  " meetings": 7088,
  " End": 7089,
  " Bell": 7090,
  "о�": 7091,
  " comprom": 7092,
  " winner": 7093,
  "intend": 7094,
  "icken": 7095,
  " gotten": 7096,
  " Daniel": 7097,
  " Turk": 7098,
  " electricity": 7099,
  "aun": 7100,
  " chosen": 7101,
  " officially": 7102,
  " bench": 7103,
  " stretch": 7104,
  " database": 7105,
  "Com": 7106,
  " Despite": 7107,
  " intellect": 7108,
  " spin": 7109,
  "igation": 7110,
  " stronger": 7111,
  " deleg": 7112,
  " purposes": 7113,
  " DNA": 7114,
  " cutting": 7115,
  " Turn": 7116,
  " fold": 7117,
  "rary": 7118,
  " extensive": 7119,
  " amounts": 7120,
  " desper": 7121,
  " trees": 7122,
  " anx": 7123,
  " ideal": 7124,
  " Asian": 7125,
  " thread": 7126,
  " fifth": 7127,
  "UR": 7129,
  " goods": 7130,
  " colon": 7131,
  " developer": 7132,
  " claiming": 7133,
  "unning": 7134,
  "Any": 7135,
  " retain": 7136,
  " soul": 7137,
  " captured": 7138,
  " Though": 7139,
  " finds": 7140,
  " driven": 7141,
  "CS": 7142,
  " payments": 7143,
  "asters": 7144,
  " Jordan": 7145,
  "ras": 7146,
  " ties": 7147,
  " reasonable": 7148,
  " dogs": 7149,
  " somebody": 7151,
  " ending": 7152,
  " Nations": 7153,
  " choices": 7154,
  " ble": 7155,
  " seats": 7156,
  " Services": 7157,
  " Thank": 7158,
  " pod": 7159,
  " engage": 7160,
  " drawn": 7161,
  " sight": 7162,
  " param": 7163,
  " Dar": 7164,
  "CE": 7165,
  " threatened": 7166,
  " ruled": 7167,
  "eping": 7168,
  " Attorney": 7169,
  " Irish": 7170,
  "ura": 7171,
  " Sea": 7172,
  " trading": 7173,
  "owed": 7174,
  " primarily": 7175,
  " aspects": 7176,
  "ML": 7177,
  " fighters": 7178,
  " answers": 7179,
  " perfectly": 7180,
  "irms": 7181,
  " Academ": 7182,
  " incl": 7183,
  " rival": 7184,
  " parking": 7185,
  " rejected": 7186,
  " Gall": 7187,
  " constantly": 7188,
  " Hun": 7189,
  "fast": 7190,
  " payment": 7191,
  " Cat": 7192,
  " distinct": 7193,
  " flying": 7194,
  " rig": 7195,
  " technologies": 7196,
  " Real": 7197,
  "</": 7198,
  " components": 7199,
  " admit": 7200,
  "Police": 7201,
  " Scotland": 7202,
  " elsewhere": 7203,
  " Dark": 7204,
  " constit": 7205,
  " tur": 7206,
  " anymore": 7207,
  "EW": 7208,
  "lder": 7209,
  " icon": 7210,
  " fields": 7211,
  " estimates": 7212,
  "sea": 7213,
  " solutions": 7214,
  " resulting": 7215,
  "78": 7216,
  " Bru": 7217,
  " awesome": 7218,
  " encoun": 7219,
  " province": 7220,
  "mod": 7221,
  " worldwide": 7222,
  " actor": 7223,
  " regularly": 7224,
  " Moore": 7225,
  " courts": 7226,
  " narrative": 7227,
  " Ut": 7228,
  "Once": 7229,
  " boot": 7230,
  " enemies": 7231,
  " mixed": 7232,
  " OS": 7233,
  "regon": 7234,
  " Disney": 7235,
  "sm": 7236,
  "icer": 7237,
  " houses": 7238,
  " nobody": 7239,
  " Sk": 7240,
  "inations": 7241,
  " controls": 7242,
  " Water": 7243,
  " letters": 7244,
  "ez": 7245,
  "apes": 7246,
  "agram": 7247,
  "iana": 7248,
  "imp": 7249,
  " 42": 7250,
  " murd": 7251,
  " mayor": 7252,
  " loan": 7253,
  " outcome": 7254,
  " MS": 7255,
  " contem": 7256,
  "sell": 7257,
  "vy": 7258,
  "Sec": 7259,
  "ship": 7260,
  " Light": 7261,
  "onic": 7262,
  "isan": 7263,
  " apartment": 7264,
  " Steven": 7265,
  " coalition": 7266,
  " contributed": 7267,
  " Bas": 7268,
  " tank": 7269,
  " concluded": 7270,
  " Adam": 7271,
  ".\"[": 7272,
  " Tw": 7273,
  " exists": 7274,
  " founder": 7275,
  " Brian": 7276,
  "earing": 7277,
  " Lew": 7278,
  " atmosphere": 7279,
  " profile": 7280,
  " brew": 7281,
  " Id": 7282,
  " situations": 7283,
  " Championship": 7284,
  " Author": 7285,
  "rates": 7286,
  " incredible": 7287,
  " Constitution": 7288,
  " signal": 7289,
  "otes": 7290,
  " Rog": 7291,
  " accurate": 7292,
  "300": 7293,
  " Victor": 7294,
  "otten": 7295,
  " unp": 7296,
  " Where": 7297,
  "ker": 7298,
  " Southern": 7299,
  " employment": 7300,
  " clients": 7301,
  "Dr": 7302,
  " keeps": 7303,
  " informed": 7304,
  " continuing": 7305,
  "inity": 7306,
  " baseball": 7307,
  " generate": 7308,
  " ticket": 7309,
  " conven": 7310,
  "Also": 7311,
  " Conf": 7312,
  " weird": 7313,
  " tied": 7314,
  "lock": 7315,
  "adelph": 7316,
  " category": 7317,
  " infect": 7318,
  "ilarly": 7319,
  "acked": 7320,
  " angry": 7321,
  " Organ": 7322,
  " routine": 7323,
  "aron": 7324,
  " kil": 7325,
  " raising": 7326,
  "ifer": 7327,
  " machines": 7328,
  " registered": 7329,
  " proved": 7330,
  "there": 7331,
  " demands": 7332,
  " gaming": 7333,
  " Italian": 7334,
  " incredibly": 7335,
  " crucial": 7336,
  " stuck": 7337,
  " Civil": 7338,
  " Dallas": 7339,
  "MP": 7340,
  "cr": 7341,
  "56": 7342,
  " terrible": 7343,
  " feedback": 7344,
  " upper": 7345,
  " plastic": 7346,
  " imper": 7347,
  " newly": 7348,
  " Joseph": 7349,
  " consumption": 7350,
  " dozen": 7351,
  " enthus": 7352,
  " estate": 7353,
  "ali": 7354,
  "rage": 7355,
  " innoc": 7356,
  " manip": 7357,
  " Tem": 7358,
  " conscious": 7359,
  " bills": 7360,
  " Cross": 7361,
  " Spain": 7362,
  "ifications": 7363,
  " writers": 7364,
  "Today": 7365,
  " excess": 7366,
  "inding": 7367,
  " aggressive": 7368,
  " reporter": 7369,
  " compens": 7370,
  " returning": 7371,
  " stead": 7372,
  " programming": 7373,
  " Thanks": 7374,
  " represented": 7375,
  " conclusion": 7376,
  "98": 7377,
  " rus": 7378,
  "MS": 7379,
  " Bowl": 7380,
  " AR": 7381,
  " origin": 7382,
  " assistant": 7383,
  "adelphia": 7384,
  " roster": 7385,
  " Minnesota": 7386,
  " organized": 7387,
  "ria": 7388,
  " penalty": 7389,
  "lers": 7390,
  " drinking": 7391,
  " paint": 7392,
  " satell": 7393,
  " gro": 7394,
  " Program": 7395,
  " capture": 7396,
  "ni": 7397,
  " conspir": 7398,
  " interpret": 7399,
  " explanation": 7400,
  "iscal": 7401,
  "58": 7402,
  " county": 7403,
  "iscons": 7404,
  "essed": 7405,
  "mont": 7406,
  "ima": 7407,
  " %": 7408,
  "anny": 7409,
  "gorith": 7410,
  "emen": 7411,
  "isconsin": 7412,
  " assistance": 7413,
  " Roman": 7414,
  " complaint": 7415,
  " ru": 7416,
  " nut": 7417,
  "LA": 7418,
  " magic": 7419,
  " tall": 7420,
  " Oper": 7421,
  " granted": 7422,
  "Ed": 7423,
  "Because": 7424,
  " Contin": 7425,
  "star": 7426,
  "Off": 7427,
  " Parliament": 7428,
  " complicated": 7429,
  " audio": 7430,
  " chances": 7431,
  " extract": 7432,
  "rypt": 7433,
  " Gi": 7434,
  " 1999": 7435,
  " hel": 7436,
  " Educ": 7437,
  "era": 7438,
  " shares": 7439,
  " successfully": 7440,
  "esy": 7441,
  "........": 7442,
  " IT": 7443,
  "zy": 7444,
  " pilot": 7445,
  " Ep": 7446,
  " Hot": 7447,
  " myth": 7448,
  " recovery": 7449,
  " Test": 7450,
  " techniques": 7451,
  " iron": 7452,
  " Care": 7453,
  " Zeal": 7454,
  " SC": 7455,
  " scenes": 7456,
  " Fre": 7457,
  " veteran": 7458,
  " Win": 7459,
  " ($": 7460,
  " degrees": 7461,
  "actions": 7462,
  "ked": 7463,
  " sympt": 7464,
  "thew": 7465,
  " lawmakers": 7466,
  " western": 7467,
  " operate": 7468,
  " ads": 7469,
  "rating": 7470,
  " habit": 7471,
  " aimed": 7472,
  "Inst": 7473,
  "anchester": 7474,
  " phr": 7475,
  "rep": 7476,
  "rete": 7477,
  " taste": 7478,
  "idency": 7479,
  " engaged": 7480,
  " privile": 7481,
  " 55": 7482,
  "========": 7483,
  " rating": 7484,
  " teaching": 7485,
  " Os": 7486,
  " academic": 7487,
  "itar": 7488,
  " therap": 7489,
  " passes": 7490,
  " dollar": 7491,
  "hent": 7492,
  " automatically": 7493,
  " Pacific": 7494,
  " monit": 7495,
  " blocks": 7496,
  "abama": 7497,
  " attended": 7498,
  " permanent": 7499,
  " survive": 7500,
  "uan": 7501,
  " anticip": 7502,
  " enable": 7503,
  " Look": 7504,
  " extrem": 7505,
  " Foreign": 7506,
  "chain": 7507,
  " marked": 7508,
  "%.": 7509,
  "itals": 7510,
  " hidden": 7511,
  " accomp": 7512,
  " titles": 7513,
  " Senator": 7514,
  " NBC": 7515,
  " taught": 7516,
  "aed": 7517,
  " Linux": 7518,
  " bom": 7519,
  " index": 7520,
  "everal": 7521,
  " elite": 7522,
  "ibilities": 7523,
  " lawyers": 7524,
  "from": 7525,
  " depending": 7526,
  " valuable": 7527,
  " installed": 7528,
  " championship": 7529,
  " root": 7530,
  " compre": 7531,
  "mal": 7532,
  " Bull": 7533,
  " downtown": 7534,
  " equivalent": 7535,
  " solve": 7536,
  "rific": 7537,
  " duty": 7538,
  " Special": 7539,
  " Business": 7540,
  "HS": 7541,
  " 64": 7542,
  " pace": 7543,
  " reputation": 7544,
  " uncertain": 7545,
  " phones": 7546,
  "uine": 7547,
  " overse": 7548,
  "bal": 7549,
  " Taylor": 7550,
  " personnel": 7551,
  " pin": 7552,
  "reams": 7553,
  "aturally": 7554,
  " sufficient": 7555,
  " visited": 7556,
  " warming": 7557,
  " principles": 7558,
  " vulnerable": 7559,
  " enjoyed": 7560,
  " fake": 7561,
  " Nick": 7562,
  " advis": 7563,
  " negotiations": 7564,
  "inder": 7565,
  " generated": 7566,
  " exposure": 7567,
  "EA": 7568,
  " recording": 7569,
  " collected": 7570,
  " regardless": 7571,
  " dict": 7572,
  " bitcoin": 7573,
  " elev": 7574,
  "active": 7576,
  " Kelly": 7577,
  " Anth": 7578,
  " cup": 7579,
  " patterns": 7580,
  "Getty": 7581,
  " Take": 7582,
  "))": 7583,
  " Avenue": 7584,
  " Josh": 7585,
  "bro": 7586,
  " disaster": 7587,
  " cable": 7588,
  " 65": 7589,
  " chat": 7590,
  " worker": 7591,
  " mainly": 7592,
  " racial": 7593,
  "quarters": 7594,
  " Coast": 7595,
  " Viet": 7596,
  "month": 7597,
  " pounds": 7598,
  " 150": 7599,
  " Call": 7600,
  " portion": 7601,
  " afraid": 7602,
  " inspir": 7603,
  " Ah": 7604,
  " defence": 7605,
  " bes": 7606,
  " Eastern": 7607,
  "da": 7608,
  " Tony": 7609,
  " tracks": 7610,
  " busy": 7611,
  " grant": 7612,
  " shit": 7613,
  " intense": 7614,
  " Series": 7615,
  " LGBT": 7616,
  "orne": 7617,
  " Still": 7618,
  "athy": 7619,
  " funny": 7620,
  " apolog": 7621,
  " surgery": 7622,
  " Moscow": 7623,
  "mann": 7624,
  " Coll": 7625,
  " possession": 7626,
  " prominent": 7627,
  " Mars": 7628,
  " comic": 7629,
  " Ger": 7630,
  "ashes": 7631,
  "97": 7632,
  "ules": 7633,
  " Ray": 7634,
  " thin": 7635,
  " engineering": 7636,
  " troub": 7637,
  " Kurd": 7638,
  "this": 7639,
  " processes": 7640,
  " Nation": 7641,
  "fall": 7642,
  " Kent": 7643,
  " Come": 7644,
  " entit": 7645,
  " ’": 7646,
  " unusual": 7647,
  "raph": 7648,
  "etary": 7649,
  " describes": 7650,
  "Col": 7651,
  "world": 7652,
  "96": 7653,
  " resulted": 7654,
  " emerged": 7655,
  " taxp": 7656,
  " gall": 7657,
  "iler": 7658,
  " dim": 7659,
  " propag": 7660,
  " Iowa": 7661,
  " Oregon": 7662,
  " coordin": 7663,
  " corruption": 7664,
  " stations": 7665,
  " Invest": 7666,
  " fought": 7667,
  " AD": 7668,
  " brut": 7669,
  " extension": 7670,
  "ref": 7671,
  " blind": 7672,
  " adopted": 7673,
  "prise": 7674,
  "ye": 7675,
  " compete": 7676,
  " recru": 7677,
  " Zealand": 7678,
  " hadn": 7679,
  "Pr": 7680,
  " 400": 7681,
  " mail": 7682,
  " everywhere": 7683,
  " Balt": 7684,
  " crypt": 7685,
  " Hom": 7686,
  "ba": 7687,
  "Rec": 7688,
  "Mean": 7689,
  "herent": 7690,
  "icate": 7691,
  " Ali": 7692,
  " contracts": 7693,
  "front": 7694,
  " neuro": 7695,
  " Lo": 7696,
  " Dead": 7697,
  " Rick": 7698,
  " feelings": 7699,
  " firms": 7700,
  "idelines": 7701,
  "HA": 7702,
  "’,": 7703,
  " minority": 7704,
  " spr": 7705,
  "cles": 7706,
  " advertising": 7707,
  "tes": 7708,
  " rarely": 7709,
  " discipl": 7710,
  "making": 7711,
  " Northern": 7712,
  " sanctions": 7713,
  "gun": 7714,
  " Veg": 7715,
  "scape": 7716,
  " Philadelphia": 7717,
  "upid": 7718,
  " cameras": 7719,
  " explicit": 7720,
  " strict": 7721,
  "viously": 7722,
  "log": 7723,
  " enorm": 7724,
  " finance": 7725,
  " cited": 7726,
  "ifies": 7727,
  "UL": 7728,
  " Before": 7729,
  " shortly": 7730,
  " Policy": 7731,
  "olt": 7732,
  " expectations": 7733,
  " implementation": 7734,
  "ogen": 7735,
  " recip": 7736,
  "cling": 7737,
  " Greek": 7738,
  " thick": 7739,
  " thousand": 7740,
  "antic": 7741,
  " Mu": 7742,
  " loud": 7743,
  "istent": 7744,
  " affili": 7745,
  "urrent": 7746,
  "orough": 7747,
  " Navy": 7748,
  " inev": 7749,
  "rell": 7750,
  "cus": 7751,
  " photograph": 7752,
  " medium": 7753,
  "azz": 7754,
  " Wisconsin": 7755,
  " scenario": 7756,
  " Food": 7757,
  " Live": 7758,
  " sup": 7759,
  "ilton": 7760,
  " plug": 7761,
  " veget": 7762,
  " ho": 7763,
  " visible": 7764,
  "LC": 7765,
  " lights": 7766,
  " creates": 7767,
  " priority": 7768,
  " ven": 7769,
  " bridge": 7770,
  "eland": 7771,
  "inking": 7772,
  " obst": 7773,
  " agric": 7774,
  "ATE": 7775,
  " permission": 7776,
  " Foot": 7777,
  " algorith": 7778,
  "izon": 7779,
  "Co": 7780,
  "elect": 7781,
  " participate": 7782,
  "aska": 7783,
  " wing": 7784,
  "who": 7785,
  "asion": 7786,
  " browser": 7787,
  " Global": 7788,
  " tag": 7789,
  " Ol": 7790,
  " Has": 7791,
  " mel": 7792,
  " acceler": 7793,
  " dozens": 7794,
  " Kingdom": 7795,
  " historic": 7796,
  " computers": 7797,
  " laid": 7798,
  " basketball": 7799,
  " losses": 7800,
  "text": 7801,
  " Saf": 7802,
  " Ash": 7803,
  "76": 7804,
  "ogether": 7805,
  "::": 7806,
  " unw": 7807,
  " tor": 7808,
  " Amendment": 7809,
  "EP": 7810,
  " strikes": 7811,
  "Mar": 7812,
  " principle": 7813,
  " Development": 7814,
  " formal": 7815,
  "igen": 7816,
  "54": 7817,
  " scoring": 7818,
  "athered": 7819,
  "obs": 7820,
  " 44": 7821,
  " counsel": 7822,
  "found": 7823,
  "++": 7824,
  " shock": 7825,
  " wonderful": 7826,
  " SP": 7827,
  " behalf": 7828,
  "abs": 7829,
  " uncom": 7830,
  "profit": 7831,
  "52": 7832,
  "enth": 7833,
  " interface": 7834,
  " establishment": 7835,
  " toler": 7836,
  " Henry": 7837,
  " Greg": 7838,
  "amber": 7839,
  "car": 7840,
  " Major": 7841,
  " Thus": 7842,
  "Us": 7843,
  " gained": 7844,
  " fee": 7845,
  "lete": 7846,
  "she": 7847,
  " founded": 7848,
  "etime": 7849,
  " foundation": 7850,
  "jo": 7851,
  "51": 7852,
  " ESP": 7853,
  "ilipp": 7854,
  " clubs": 7855,
  " cannabis": 7856,
  " ju": 7857,
  " airport": 7858,
  " Key": 7859,
  "ystem": 7860,
  " borrow": 7861,
  "olis": 7862,
  "weet": 7863,
  " manufacturing": 7864,
  " rely": 7865,
  "BO": 7866,
  " Hit": 7867,
  "aus": 7868,
  " Pay": 7869,
  " Alabama": 7870,
  " genuine": 7871,
  " Royal": 7872,
  "rators": 7873,
  "Before": 7874,
  "uer": 7875,
  " component": 7876,
  " ridic": 7877,
  "osexual": 7878,
  " wheel": 7879,
  "rative": 7880,
  " Oak": 7881,
  " journalist": 7882,
  " relief": 7883,
  " Sn": 7884,
  " saved": 7885,
  " hole": 7886,
  " yield": 7887,
  " headed": 7888,
  " cyber": 7889,
  "Ne": 7890,
  " Moh": 7891,
  "ependent": 7892,
  " gift": 7893,
  "bell": 7894,
  " fault": 7895,
  " withdraw": 7896,
  " indicate": 7897,
  " drawing": 7898,
  " uniform": 7899,
  "umer": 7900,
  " Rand": 7901,
  " Vis": 7902,
  "arlier": 7903,
  " stable": 7904,
  " ships": 7905,
  " ->": 7906,
  " banned": 7907,
  " magn": 7908,
  " Mid": 7909,
  " footage": 7910,
  "Meanwhile": 7911,
  "rous": 7912,
  " doors": 7913,
  "lan": 7914,
  " recognized": 7915,
  "pread": 7916,
  " 1960": 7917,
  " containing": 7918,
  " FC": 7919,
  " river": 7920,
  "ami": 7921,
  " struggling": 7922,
  "Sub": 7923,
  " spark": 7924,
  " Academy": 7925,
  " walls": 7926,
  " achieved": 7927,
  "opher": 7928,
  "ounced": 7929,
  " neighb": 7930,
  "aning": 7931,
  " plate": 7932,
  " edition": 7933,
  " HT": 7934,
  "portion": 7935,
  "mate": 7936,
  " movements": 7937,
  " deliber": 7938,
  "uce": 7939,
  "teen": 7940,
  "Post": 7941,
  " sharp": 7942,
  " AS": 7943,
  " Snow": 7944,
  "ulating": 7945,
  " Three": 7946,
  " episodes": 7947,
  " neutral": 7948,
  " Premier": 7949,
  " Ret": 7950,
  " Fund": 7951,
  " exception": 7952,
  "etts": 7953,
  " producer": 7954,
  "________________": 7955,
  " Fred": 7956,
  " destruction": 7957,
  " 1998": 7958,
  "oured": 7959,
  " beliefs": 7960,
  " 47": 7961,
  " Review": 7962,
  " legend": 7963,
  " pump": 7964,
  " McG": 7965,
  " backed": 7966,
  "umin": 7967,
  " liked": 7968,
  " hired": 7969,
  "idespread": 7970,
  "cription": 7971,
  " roles": 7972,
  " languages": 7973,
  " profession": 7974,
  " entering": 7975,
  "osa": 7976,
  " VR": 7977,
  " interviews": 7978,
  " hang": 7979,
  "isp": 7980,
  " Kir": 7981,
  "eman": 7982,
  " tox": 7983,
  " philosophy": 7984,
  " Administration": 7985,
  " arrange": 7986,
  "oen": 7987,
  "interest": 7988,
  " flaw": 7989,
  "Those": 7990,
  " Nob": 7991,
  "sylv": 7992,
  "imore": 7993,
  " stadium": 7994,
  " Atlanta": 7995,
  " Jac": 7996,
  " reduction": 7997,
  " dinner": 7998,
  "ja": 7999,
  "ca": 8000,
  " bath": 8001,
  " Report": 8002,
  "iel": 8003,
  "uper": 8004,
  " Turkish": 8005,
  "400": 8006,
  " aver": 8007,
  " finger": 8008,
  " Note": 8009,
  " Conference": 8010,
  " tackle": 8011,
  " cha": 8012,
  "burgh": 8013,
  " gonna": 8014,
  " Diego": 8015,
  " Point": 8016,
  " crop": 8017,
  " Centre": 8018,
  " farmers": 8019,
  " Manchester": 8020,
  " nominee": 8021,
  " 41": 8022,
  "53": 8023,
  "aching": 8024,
  " Jason": 8025,
  " barely": 8026,
  "ATO": 8027,
  " structures": 8028,
  " contained": 8029,
  " synt": 8030,
  " Ott": 8031,
  " delivery": 8032,
  " convin": 8033,
  "%,": 8034,
  " processing": 8035,
  " discrimination": 8036,
  " incent": 8037,
  "riers": 8038,
  "RS": 8039,
  " Fair": 8040,
  "erved": 8041,
  " Data": 8042,
  "then": 8043,
  " Arm": 8044,
  "abinet": 8045,
  " intellectual": 8046,
  " Radio": 8047,
  "amsung": 8048,
  " 46": 8049,
  " Bry": 8050,
  " OK": 8051,
  " Field": 8052,
  "Me": 8053,
  " Did": 8054,
  " upset": 8055,
  " Perhaps": 8056,
  " Mir": 8057,
  " Education": 8058,
  "sylvania": 8059,
  "away": 8060,
  " challenging": 8061,
  " proven": 8062,
  " restrictions": 8063,
  "rik": 8064,
  "President": 8065,
  " forever": 8066,
  "ho": 8067,
  "olen": 8068,
  "https": 8069,
  " electronic": 8070,
  " hitting": 8071,
  " Hay": 8072,
  " euro": 8073,
  " unex": 8074,
  " reviews": 8075,
  " Fed": 8076,
  " Christians": 8077,
  " 43": 8078,
  " convicted": 8079,
  " NC": 8080,
  "Star": 8081,
  " illness": 8082,
  " smooth": 8083,
  "page": 8084,
  "Dav": 8085,
  " Hor": 8086,
  " retired": 8087,
  " indicated": 8088,
  "usive": 8089,
  " producing": 8090,
  " About": 8091,
  " Harry": 8092,
  " rapidly": 8093,
  " rose": 8094,
  " hide": 8095,
  "fr": 8096,
  " corporations": 8097,
  " ocean": 8098,
  "iy": 8099,
  " Rus": 8100,
  "aying": 8101,
  "owing": 8102,
  " listening": 8103,
  " Reuters": 8104,
  " UFC": 8105,
  " Sat": 8106,
  " technique": 8107,
  " mo": 8108,
  "yard": 8109,
  "sels": 8110,
  " loyal": 8111,
  " Nic": 8112,
  "lessly": 8113,
  " robot": 8114,
  " climb": 8115,
  " notion": 8116,
  " begun": 8117,
  "87": 8118,
  " util": 8119,
  " recognition": 8120,
  " ren": 8121,
  "ouver": 8122,
  "engers": 8123,
  " perpet": 8124,
  " association": 8125,
  " milk": 8126,
  " asks": 8127,
  "inf": 8128,
  " websites": 8129,
  " description": 8130,
  " Pack": 8131,
  " tickets": 8132,
  " Pen": 8133,
  "achus": 8134,
  " flash": 8135,
  " bra": 8136,
  " suggesting": 8137,
  "enny": 8138,
  " Judge": 8139,
  " exclusive": 8140,
  " reaching": 8141,
  " prepare": 8142,
  "iti": 8143,
  " Kansas": 8144,
  "Who": 8145,
  "ione": 8146,
  " bail": 8147,
  " frag": 8148,
  " progressive": 8149,
  " burd": 8150,
  " exceed": 8151,
  " equally": 8152,
  " Hard": 8153,
  " hardly": 8154,
  " widespread": 8155,
  " ABC": 8156,
  " campaigns": 8157,
  " Mayor": 8158,
  " contribute": 8159,
  "udes": 8160,
  "ologists": 8161,
  " branch": 8162,
  " Rose": 8163,
  " grass": 8164,
  " initiative": 8165,
  "Look": 8166,
  " Market": 8167,
  " ethnic": 8168,
  " external": 8169,
  "ikes": 8170,
  " Circ": 8171,
  "uma": 8172,
  "rient": 8173,
  " sensitive": 8174,
  " practical": 8175,
  "usted": 8176,
  "elf": 8177,
  " unclear": 8178,
  " normally": 8179,
  "Ref": 8180,
  " representative": 8181,
  "pat": 8182,
  "ls": 8183,
  "89": 8184,
  "thon": 8185,
  " welf": 8186,
  " Full": 8187,
  " reducing": 8188,
  "appy": 8189,
  " friendly": 8190,
  "bec": 8191,
  " carefully": 8192,
  " Arabia": 8193,
  " Ref": 8194,
  "PM": 8195,
  "lad": 8196,
  "ester": 8197,
  " Ly": 8198,
  " Luc": 8199,
  " racist": 8200,
  " invent": 8201,
  "rical": 8202,
  "PG": 8203,
  "ouch": 8204,
  " CO": 8205,
  " Next": 8206,
  " respectively": 8207,
  "senal": 8208,
  "rator": 8209,
  " tail": 8210,
  "imm": 8211,
  " McCain": 8212,
  " Bernie": 8213,
  "ancouver": 8214,
  " overwhelming": 8215,
  " viewers": 8216,
  " Beach": 8217,
  "stract": 8218,
  " welfare": 8219,
  "arrass": 8220,
  " Further": 8221,
  "UN": 8222,
  " convinced": 8223,
  " smoke": 8224,
  "umes": 8225,
  " collapse": 8226,
  " involvement": 8227,
  " Lind": 8228,
  " thrown": 8229,
  "pload": 8230,
  " connections": 8231,
  "heast": 8232,
  " terrorists": 8233,
  " Battle": 8234,
  " strategic": 8235,
  " hook": 8236,
  " 00": 8237,
  " Latin": 8238,
  " recover": 8239,
  "omething": 8240,
  "igrant": 8241,
  " Ont": 8242,
  " wine": 8243,
  "Mc": 8244,
  "inois": 8245,
  " Music": 8246,
  "rolled": 8247,
  " minds": 8248,
  " vital": 8249,
  " settlement": 8250,
  " statistics": 8251,
  " lists": 8252,
  " vary": 8253,
  " Sir": 8254,
  " featuring": 8255,
  "ecut": 8256,
  " ESPN": 8257,
  " Dig": 8258,
  "achusetts": 8259,
  " behaviour": 8260,
  " independence": 8261,
  "worth": 8262,
  " fantasy": 8263,
  " devast": 8264,
  "nedy": 8265,
  "core": 8266,
  "uties": 8267,
  " invited": 8268,
  " complaints": 8269,
  " joining": 8270,
  " scores": 8271,
  "dem": 8272,
  " fiscal": 8273,
  " deeper": 8274,
  "abil": 8275,
  " Pennsylvania": 8276,
  "ifest": 8277,
  " steal": 8278,
  " anger": 8279,
  " deputy": 8280,
  " elig": 8281,
  " wars": 8282,
  " Square": 8283,
  " Tenn": 8284,
  " investigate": 8285,
  " Town": 8286,
  " sugar": 8287,
  " constitutional": 8288,
  "FA": 8289,
  " scholars": 8290,
  " Pit": 8291,
  " iOS": 8292,
  " anybody": 8293,
  " subjects": 8294,
  " III": 8295,
  " AND": 8296,
  " array": 8297,
  " alien": 8298,
  " Ult": 8299,
  " Gov": 8300,
  " lobby": 8301,
  " ownership": 8302,
  " framework": 8303,
  " unemployment": 8304,
  " Division": 8305,
  " transgender": 8306,
  "bn": 8307,
  " improvements": 8308,
  " SS": 8309,
  " menu": 8310,
  " peak": 8311,
  "Back": 8312,
  " screens": 8313,
  "ihad": 8314,
  " inject": 8315,
  " luck": 8316,
  "iversary": 8317,
  " define": 8318,
  " tasks": 8319,
  " Xbox": 8320,
  " democratic": 8321,
  " scandal": 8322,
  "icking": 8323,
  " jury": 8324,
  " Anton": 8325,
  "acon": 8326,
  "Che": 8327,
  " Ministry": 8328,
  " cos": 8329,
  " Es": 8330,
  " comprehens": 8331,
  "osit": 8332,
  " Kat": 8333,
  " remem": 8334,
  " discovery": 8335,
  "unior": 8336,
  " register": 8337,
  " casual": 8338,
  " citizen": 8339,
  "RI": 8340,
  " fab": 8341,
  "Under": 8342,
  "een": 8343,
  " roads": 8344,
  " disagree": 8345,
  " failing": 8346,
  " Never": 8347,
  " Little": 8348,
  " Jay": 8349,
  " dynamic": 8350,
  " serves": 8351,
  " Cameron": 8352,
  " Brother": 8353,
  " Mah": 8354,
  " testim": 8355,
  " gathered": 8356,
  " Stone": 8357,
  " Information": 8358,
  "Sm": 8359,
  " soph": 8360,
  "oding": 8361,
  " implemented": 8362,
  " controversy": 8363,
  " collective": 8364,
  " trained": 8365,
  "anna": 8366,
  " NSA": 8367,
  " neighbour": 8368,
  " fears": 8369,
  "leveland": 8370,
  " samples": 8371,
  " fiction": 8372,
  " prosec": 8373,
  "agg": 8374,
  " estimate": 8375,
  " Community": 8376,
  "69": 8377,
  " Ice": 8378,
  " Medical": 8379,
  " 1997": 8380,
  " Philipp": 8381,
  " referring": 8382,
  " tip": 8383,
  " captain": 8384,
  "Will": 8385,
  " 1996": 8386,
  " spaces": 8387,
  "cific": 8388,
  " Walker": 8389,
  " versus": 8390,
  " legs": 8391,
  "PC": 8392,
  " Santa": 8393,
  "'.": 8394,
  " temporary": 8395,
  " noise": 8396,
  " HD": 8397,
  " overt": 8398,
  " incorpor": 8399,
  " tone": 8400,
  " visitors": 8401,
  " reven": 8402,
  " civilians": 8403,
  " wages": 8404,
  " hypot": 8405,
  " sin": 8406,
  " remarks": 8407,
  " awareness": 8408,
  " Spring": 8409,
  " ON": 8410,
  " recommended": 8411,
  " stupid": 8412,
  " Allen": 8413,
  " heading": 8414,
  " handful": 8415,
  " regulation": 8416,
  "icket": 8417,
  " Action": 8418,
  " Core": 8419,
  " platforms": 8420,
  " accus": 8421,
  " Anthony": 8422,
  " affairs": 8423,
  " touchdown": 8424,
  " rural": 8425,
  " attacking": 8426,
  "gener": 8427,
  " extend": 8428,
  " ultimate": 8429,
  " attached": 8430,
  " Vegas": 8431,
  " discussions": 8432,
  " Ren": 8433,
  " horse": 8434,
  " Brew": 8435,
  "mad": 8436,
  " reprodu": 8437,
  " genetic": 8438,
  " expanded": 8439,
  " attempting": 8440,
  "phones": 8441,
  " Matthew": 8442,
  " races": 8443,
  "including": 8444,
  "iry": 8445,
  " Queen": 8446,
  " raw": 8447,
  " ignore": 8448,
  " Columbia": 8449,
  "serv": 8450,
  " Pent": 8451,
  " Guardian": 8452,
  "hour": 8453,
  " Cook": 8454,
  " iP": 8455,
  "itionally": 8456,
  " gear": 8457,
  " symptoms": 8458,
  " Patrick": 8459,
  " suffer": 8460,
  " settings": 8461,
  " Make": 8462,
  "————": 8463,
  ".-": 8464,
  "alling": 8465,
  " salary": 8466,
  "case": 8467,
  " licens": 8468,
  "mary": 8469,
  "GO": 8470,
  " tweeted": 8471,
  "angel": 8472,
  " publication": 8473,
  " brill": 8474,
  " factory": 8475,
  " suspected": 8476,
  " purchased": 8477,
  "aret": 8478,
  " intervention": 8479,
  " eastern": 8480,
  " holiday": 8481,
  "type": 8482,
  "2014": 8483,
  " theat": 8484,
  "esh": 8485,
  " displ": 8486,
  " ranked": 8487,
  " Budd": 8488,
  " neck": 8489,
  " Austin": 8490,
  " Conservative": 8491,
  "About": 8492,
  " Museum": 8493,
  "ective": 8494,
  " Roy": 8495,
  "\")": 8496,
  " cro": 8497,
  " enormous": 8498,
  "####": 8499,
  "intendo": 8500,
  " cogn": 8501,
  "Sen": 8502,
  " logic": 8503,
  "ultural": 8504,
  "ictions": 8505,
  " API": 8506,
  " improvement": 8507,
  " viewed": 8508,
  " ingred": 8509,
  " entertainment": 8510,
  " legitimate": 8511,
  "Ass": 8512,
  " Professor": 8513,
  "ommod": 8514,
  " presum": 8515,
  " Albert": 8516,
  " Massachusetts": 8517,
  " Ball": 8518,
  " 2019": 8519,
  " www": 8520,
  "News": 8521,
  " actors": 8522,
  " substantial": 8523,
  " humanity": 8524,
  " involves": 8525,
  " resource": 8526,
  "arms": 8527,
  " brothers": 8528,
  " liquid": 8529,
  " rational": 8530,
  " seemingly": 8531,
  " sorry": 8532,
  " layer": 8533,
  " loans": 8534,
  " rook": 8535,
  " investigating": 8536,
  " absence": 8537,
  " providers": 8538,
  " tomorrow": 8539,
  " fallen": 8540,
  " bureau": 8541,
  " grounds": 8542,
  " coaches": 8543,
  " stake": 8544,
  " resign": 8545,
  " outs": 8546,
  "RC": 8547,
  "rec": 8548,
  " advocates": 8549,
  " €": 8550,
  " investigators": 8551,
  " conspiracy": 8552,
  " medicine": 8553,
  " dramatic": 8554,
  "Where": 8555,
  " fulf": 8556,
  " monitor": 8557,
  " Chair": 8558,
  "EST": 8559,
  "repre": 8560,
  " overs": 8561,
  " chapter": 8562,
  " Season": 8563,
  " coc": 8564,
  "oval": 8565,
  "lah": 8566,
  " Ho": 8567,
  " activist": 8568,
  "plete": 8569,
  "ped": 8570,
  " boat": 8571,
  " Check": 8572,
  "aka": 8573,
  "GE": 8574,
  " Control": 8575,
  " jur": 8576,
  " suspended": 8577,
  " papers": 8578,
  "Script": 8579,
  " Greece": 8580,
  " opinions": 8581,
  " Such": 8582,
  " Ross": 8583,
  " missile": 8584,
  " Golden": 8585,
  " celeb": 8586,
  " Revolution": 8587,
  "2016": 8588,
  " stayed": 8589,
  " covers": 8590,
  " Ra": 8591,
  " Head": 8592,
  "iverpool": 8593,
  " diversity": 8594,
  "otype": 8595,
  " bars": 8596,
  "Part": 8597,
  " gam": 8598,
  "Russ": 8599,
  " embarrass": 8600,
  "xit": 8601,
  " offices": 8602,
  " Acc": 8603,
  "rets": 8604,
  "ourse": 8605,
  "claim": 8606,
  " Pot": 8607,
  "hot": 8608,
  " Iranian": 8609,
  "ammed": 8610,
  " disrupt": 8611,
  "cover": 8612,
  " WW": 8613,
  " preced": 8614,
  " poly": 8615,
  " forest": 8616,
  "wered": 8617,
  " careful": 8618,
  "mat": 8619,
  "reprene": 8620,
  "vard": 8621,
  " amid": 8622,
  " History": 8623,
  "79": 8624,
  " Hospital": 8625,
  "isting": 8626,
  " Ale": 8627,
  " authent": 8628,
  "quest": 8629,
  " Illinois": 8630,
  " CBS": 8631,
  " Sony": 8632,
  "uction": 8633,
  " ham": 8634,
  "geon": 8635,
  "Related": 8636,
  "dit": 8637,
  " Ap": 8638,
  "74": 8639,
  "72": 8640,
  "rine": 8641,
  " transportation": 8642,
  " Vancouver": 8643,
  " Gaza": 8644,
  " handed": 8645,
  " protocol": 8646,
  " consistently": 8647,
  " mountain": 8648,
  " 52": 8649,
  " reads": 8650,
  " Stat": 8651,
  " pref": 8652,
  " clothes": 8653,
  " attitude": 8654,
  "iability": 8655,
  " Share": 8656,
  " Kennedy": 8657,
  " porn": 8658,
  " princip": 8659,
  " Freedom": 8660,
  " depends": 8661,
  " mining": 8662,
  " petition": 8663,
  " noting": 8664,
  " warrant": 8665,
  "des": 8666,
  " conce": 8667,
  " colors": 8668,
  " lowest": 8669,
  " Anderson": 8670,
  " Tri": 8671,
  " addressed": 8672,
  " Family": 8673,
  "bi": 8674,
  "unes": 8675,
  " entr": 8676,
  " Stadium": 8677,
  "xx": 8678,
  "Ste": 8679,
  " throwing": 8680,
  " je": 8681,
  " fruit": 8682,
  " virtually": 8683,
  "!)": 8684,
  " stone": 8685,
  " foss": 8686,
  " Mean": 8687,
  " guarantee": 8688,
  " referend": 8689,
  "Both": 8690,
  "??": 8691,
  " speaks": 8692,
  " Baltimore": 8693,
  "inch": 8694,
  " steel": 8695,
  " closing": 8696,
  " reader": 8697,
  "FF": 8698,
  "dri": 8699,
  " buff": 8700,
  " personality": 8701,
  " appreciate": 8702,
  " Cre": 8703,
  " Iraqi": 8704,
  " surf": 8705,
  " Environment": 8706,
  " nerv": 8707,
  "iences": 8708,
  "maker": 8709,
  " km": 8710,
  "keep": 8711,
  " handling": 8712,
  " profits": 8713,
  "ordon": 8714,
  " grav": 8715,
  " marks": 8716,
  "low": 8717,
  " tries": 8718,
  " Broad": 8719,
  " contributions": 8720,
  " Engine": 8721,
  "ropri": 8722,
  "zed": 8723,
  " spiritual": 8724,
  " conversations": 8725,
  " fantastic": 8726,
  " Tro": 8727,
  " lands": 8728,
  "\".[": 8729,
  " console": 8730,
  "ila": 8731,
  " horror": 8732,
  "ppers": 8733,
  "icity": 8734,
  " gains": 8735,
  " covering": 8736,
  " tea": 8737,
  "ivals": 8738,
  " Harris": 8739,
  "Her": 8740,
  " hint": 8741,
  " astron": 8742,
  "aval": 8743,
  " shoulder": 8744,
  "scale": 8745,
  " wrest": 8746,
  " guest": 8747,
  " Ext": 8748,
  " accommod": 8749,
  "uted": 8750,
  "uits": 8751,
  " depression": 8752,
  " _": 8753,
  " Lewis": 8754,
  " lucky": 8755,
  " CA": 8756,
  " Bang": 8757,
  " encouraged": 8758,
  "flix": 8759,
  "amac": 8760,
  " judges": 8761,
  " incidents": 8762,
  " Cleveland": 8763,
  " drew": 8764,
  " subsequent": 8765,
  "ira": 8766,
  " spoken": 8767,
  " Howard": 8768,
  "annels": 8769,
  " Bad": 8770,
  " brown": 8771,
  " bacter": 8772,
  "ixed": 8773,
  "Please": 8774,
  " rhet": 8775,
  " ranks": 8776,
  " Getty": 8777,
  " photograp": 8778,
  " inflation": 8779,
  " inner": 8780,
  " Intelligence": 8781,
  " Po": 8782,
  "itting": 8783,
  " Ba": 8784,
  " maps": 8785,
  "abeth": 8786,
  " Patri": 8787,
  "ported": 8788,
  "ijing": 8789,
  "plate": 8790,
  " divided": 8791,
  " 1995": 8792,
  " NATO": 8793,
  "********": 8794,
  " paralle": 8795,
  " drama": 8796,
  " Mexican": 8797,
  " distributed": 8798,
  " gal": 8799,
  " innovation": 8800,
  " swing": 8801,
  "unicip": 8802,
  " cust": 8803,
  " Unfortunately": 8804,
  " premium": 8805,
  " voter": 8806,
  " permit": 8807,
  " revel": 8808,
  " Kong": 8809,
  " trem": 8810,
  " dance": 8811,
  " clim": 8812,
  "pled": 8813,
  " Las": 8814,
  " efficiency": 8815,
  " promises": 8816,
  " Indeed": 8817,
  "Note": 8818,
  "eding": 8819,
  " CH": 8820,
  " Which": 8821,
  " ballot": 8822,
  " 51": 8823,
  "pie": 8824,
  " Adv": 8825,
  " temperatures": 8826,
  " Samsung": 8827,
  " portray": 8828,
  " spokesperson": 8829,
  " locked": 8830,
  " lying": 8831,
  " improving": 8832,
  " threw": 8833,
  " joy": 8834,
  " dump": 8835,
  "Art": 8836,
  "PP": 8837,
  " musical": 8838,
  " mistakes": 8839,
  "dated": 8840,
  " shout": 8841,
  " Start": 8842,
  " homeless": 8843,
  "conf": 8844,
  " replacement": 8845,
  "eries": 8846,
  " comedy": 8847,
  " checks": 8848,
  " Without": 8849,
  " Moon": 8850,
  " instrument": 8851,
  "ounce": 8852,
  " Connect": 8853,
  " acknowledged": 8854,
  " barrel": 8855,
  " responses": 8856,
  " protecting": 8857,
  "backs": 8858,
  " Det": 8859,
  "": 8860,
  " silver": 8861,
  " copies": 8862,
  " AC": 8863,
  "heim": 8864,
  " les": 8865,
  " dad": 8866,
  " breaks": 8867,
  " Plus": 8868,
  " Buff": 8869,
  " commonly": 8870,
  " lets": 8871,
  " legacy": 8872,
  "itage": 8873,
  " protein": 8874,
  " mathem": 8875,
  " joke": 8876,
  "amacare": 8877,
  "erted": 8878,
  "hop": 8879,
  "arre": 8880,
  " passengers": 8881,
  "2015": 8882,
  " yellow": 8883,
  " Marvel": 8884,
  " naturally": 8885,
  "Your": 8886,
  " Scient": 8887,
  " nomination": 8888,
  " measured": 8889,
  "Source": 8890,
  "aping": 8891,
  "oded": 8892,
  "alia": 8893,
  " Use": 8894,
  " abandoned": 8895,
  " mad": 8896,
  " Prince": 8897,
  " studied": 8898,
  "800": 8899,
  " Football": 8900,
  "helsea": 8901,
  " diverse": 8902,
  "argo": 8903,
  " acquired": 8904,
  "ieties": 8905,
  " Lyn": 8906,
  "esty": 8907,
  " soil": 8908,
  " Marsh": 8909,
  "Cons": 8910,
  " demonstrated": 8911,
  " blast": 8912,
  " rear": 8913,
  " funded": 8914,
  " headquarters": 8915,
  "hesis": 8916,
  "yo": 8917,
  " stolen": 8918,
  " scan": 8919,
  " counts": 8920,
  " tape": 8921,
  " partnership": 8922,
  " midfield": 8923,
  " NOT": 8924,
  " (“": 8925,
  " upgrade": 8926,
  " Cost": 8927,
  " Atlantic": 8928,
  "yer": 8929,
  " march": 8930,
  " ordinary": 8931,
  " Aud": 8932,
  " Nev": 8933,
  " rom": 8934,
  "aware": 8935,
  " literature": 8936,
  " plain": 8937,
  " stages": 8938,
  " •": 8939,
  " assert": 8940,
  " 1994": 8941,
  "high": 8942,
  " AI": 8943,
  " helpful": 8944,
  " arrive": 8945,
  " exit": 8946,
  " scope": 8947,
  " falls": 8948,
  "63": 8949,
  "dog": 8950,
  "BM": 8951,
  " ignored": 8952,
  " twenty": 8953,
  "eters": 8954,
  " Master": 8955,
  " clock": 8956,
  " compe": 8957,
  "inction": 8958,
  " virus": 8959,
  " Trib": 8960,
  " referendum": 8961,
  " inequ": 8962,
  " unions": 8963,
  " Does": 8964,
  "assador": 8965,
  " Gun": 8966,
  " conservatives": 8967,
  " rif": 8968,
  " grid": 8969,
  " symp": 8970,
  " festival": 8971,
  " fro": 8972,
  " shopping": 8973,
  " waters": 8974,
  " Pop": 8975,
  " capabilities": 8976,
  " Bron": 8977,
  " ax": 8978,
  "lahoma": 8979,
  " usage": 8980,
  " Hind": 8981,
  "iate": 8982,
  "zing": 8983,
  " Empire": 8984,
  "aeda": 8985,
  " Abb": 8986,
  "ington": 8987,
  " Indiana": 8988,
  "iley": 8989,
  " transactions": 8990,
  "erg": 8991,
  " hoped": 8992,
  " distract": 8993,
  " Ast": 8994,
  " guitar": 8995,
  "VE": 8996,
  " Eag": 8997,
  " sty": 8998,
  " ramp": 8999,
  " assessment": 9000,
  " universities": 9001,
  "ctic": 9002,
  " Dave": 9003,
  " moon": 9004,
  " monitoring": 9005,
  "ormal": 9006,
  "acket": 9007,
  "bridge": 9008,
  " representing": 9009,
  "Facebook": 9010,
  " ratio": 9011,
  " Death": 9012,
  "encing": 9013,
  "ught": 9014,
  "62": 9015,
  " Prov": 9016,
  " conventional": 9017,
  "UST": 9018,
  "comes": 9019,
  "orge": 9020,
  " trave": 9021,
  " Set": 9022,
  " tracking": 9023,
  "door": 9024,
  "ntil": 9025,
  " Sometimes": 9026,
  "61": 9027,
  "only": 9028,
  "shire": 9029,
  " hung": 9030,
  " Sus": 9031,
  " reliable": 9032,
  " tie": 9033,
  " proposals": 9034,
  " skept": 9035,
  " Hell": 9036,
  " replied": 9037,
  " Ros": 9038,
  "fund": 9039,
  "uh": 9040,
  " criticized": 9041,
  " appearances": 9042,
  "rimin": 9043,
  " Ha": 9044,
  "ecutive": 9045,
  "ela": 9046,
  " racism": 9047,
  " insisted": 9048,
  "organ": 9049,
  " 2020": 9050,
  " introduction": 9051,
  " appointed": 9052,
  "dney": 9053,
  " Bureau": 9054,
  "olph": 9055,
  "agic": 9056,
  " Pass": 9057,
  "cut": 9058,
  "Ke": 9059,
  " Line": 9060,
  " beauty": 9061,
  " concrete": 9062,
  " receiver": 9063,
  " supplies": 9064,
  " performing": 9065,
  "made": 9066,
  "ji": 9067,
  " bub": 9068,
  " exch": 9069,
  "rite": 9070,
  " visiting": 9071,
  " Technology": 9072,
  " Denver": 9073,
  "ocument": 9074,
  "EE": 9075,
  "omes": 9076,
  " Capt": 9077,
  "theless": 9078,
  "RL": 9079,
  " letting": 9080,
  "AND": 9081,
  " deficit": 9082,
  " classified": 9083,
  " Galaxy": 9084,
  "HT": 9085,
  " auto": 9086,
  " render": 9087,
  " absor": 9088,
  " Orig": 9089,
  " swim": 9090,
  " accomplish": 9091,
  " programme": 9092,
  " presidency": 9093,
  "crib": 9094,
  " blocked": 9095,
  " Sweden": 9096,
  "archy": 9097,
  " dust": 9098,
  " Utah": 9099,
  " drove": 9100,
  " landscape": 9101,
  " cance": 9102,
  " Portland": 9103,
  "plus": 9104,
  " dismissed": 9105,
  " LA": 9106,
  " hyper": 9107,
  " abroad": 9108,
  " bonus": 9109,
  " Jam": 9110,
  " Tour": 9111,
  "har": 9112,
  " sequence": 9113,
  " predicted": 9114,
  " senator": 9115,
  "°": 9116,
  " Age": 9117,
  " domain": 9118,
  " Code": 9119,
  " ec": 9120,
  " museum": 9121,
  " warn": 9122,
  " Associated": 9123,
  "acco": 9124,
  "NS": 9125,
  " persons": 9126,
  " dub": 9127,
  "iano": 9128,
  "aga": 9129,
  " requested": 9130,
  " trigger": 9131,
  " Ontario": 9132,
  " hockey": 9133,
  " Corpor": 9134,
  " artific": 9135,
  " dates": 9136,
  " testimony": 9137,
  " centers": 9138,
  "л": 9139,
  " rocket": 9140,
  "irts": 9141,
  " ves": 9142,
  " transit": 9143,
  " congressional": 9144,
  " entitled": 9145,
  "ultane": 9146,
  " spokeswoman": 9147,
  " Front": 9148,
  " Nintendo": 9149,
  " Alexander": 9150,
  " rescue": 9151,
  " Cooper": 9152,
  "mony": 9153,
  " assign": 9154,
  " Bon": 9155,
  " equality": 9156,
  " patch": 9157,
  " urged": 9158,
  " bread": 9159,
  " Olympic": 9160,
  " documentary": 9161,
  " veterans": 9162,
  " clar": 9163,
  "fol": 9164,
  "93": 9165,
  "ais": 9166,
  "king": 9167,
  " ”": 9168,
  "pton": 9169,
  " recall": 9170,
  " populations": 9171,
  "94": 9172,
  " Low": 9173,
  " breath": 9174,
  "Still": 9175,
  "92": 9176,
  "rooms": 9177,
  " whenever": 9178,
  " violation": 9179,
  " tactics": 9180,
  " wider": 9181,
  "71": 9182,
  "ounding": 9183,
  " Kar": 9184,
  " targeting": 9185,
  "Yet": 9186,
  "through": 9187,
  " pursue": 9188,
  " salt": 9189,
  "\">": 9190,
  "izabeth": 9191,
  " firing": 9192,
  "don": 9193,
  "Are": 9194,
  " Mill": 9195,
  " acid": 9196,
  " mole": 9197,
  "inating": 9198,
  " restaurants": 9199,
  " compare": 9200,
  "73": 9201,
  "fare": 9202,
  "Comp": 9203,
  "orous": 9204,
  "ennis": 9205,
  " wedd": 9206,
  " employed": 9207,
  " Roberts": 9208,
  " contrad": 9209,
  " Bible": 9210,
  " politically": 9211,
  " phrase": 9212,
  " satellite": 9213,
  " Cro": 9214,
  " survival": 9215,
  " retirement": 9216,
  " banking": 9217,
  " Form": 9218,
  " brilliant": 9219,
  "isons": 9220,
  " Girl": 9221,
  "atar": 9222,
  " channels": 9223,
  " servers": 9224,
  " Beijing": 9225,
  " soccer": 9226,
  "trans": 9227,
  "aver": 9228,
  " Mach": 9229,
  "they": 9230,
  " introduce": 9231,
  " Justin": 9232,
  " experiments": 9233,
  "enez": 9234,
  " prisoners": 9235,
  "rapped": 9236,
  " cig": 9237,
  " WH": 9238,
  "afe": 9239,
  "jud": 9240,
  " fighter": 9241,
  "600": 9242,
  " scientist": 9243,
  "OK": 9244,
  "usalem": 9245,
  " YOU": 9246,
  " List": 9247,
  " submit": 9248,
  " approached": 9249,
  " Award": 9250,
  " monthly": 9251,
  " Liverpool": 9252,
  " designs": 9253,
  " representatives": 9254,
  " titled": 9255,
  "ordinary": 9256,
  " quote": 9257,
  " popularity": 9258,
  "olves": 9259,
  " abilities": 9260,
  "oenix": 9261,
  " cul": 9262,
  " PD": 9263,
  " membership": 9264,
  " investigations": 9265,
  " focusing": 9266,
  "mans": 9267,
  " hosp": 9268,
  " bab": 9269,
  " Bridge": 9270,
  "Though": 9271,
  " Maryland": 9272,
  " saving": 9273,
  "pa": 9274,
  " rush": 9275,
  " Governor": 9276,
  " shadow": 9277,
  "ouri": 9278,
  "bow": 9279,
  " Hur": 9280,
  " Base": 9281,
  " objective": 9282,
  "berry": 9283,
  " Ted": 9284,
  "emed": 9285,
  "erts": 9286,
  "ederation": 9287,
  " mit": 9288,
  " prepar": 9289,
  " tips": 9290,
  " Was": 9291,
  " pipeline": 9292,
  " childhood": 9293,
  "David": 9294,
  "ika": 9295,
  " ratings": 9296,
  " thorough": 9297,
  " entreprene": 9298,
  "enter": 9299,
  " Vill": 9300,
  " Dutch": 9301,
  "was": 9302,
  "break": 9303,
  " actively": 9304,
  " Harvard": 9305,
  " pig": 9306,
  " Som": 9307,
  " demanding": 9308,
  " loose": 9309,
  "asty": 9310,
  " Bra": 9311,
  " unexpected": 9312,
  "CO": 9313,
  " smoking": 9314,
  " smell": 9315,
  " deny": 9316,
  " universal": 9317,
  " forecast": 9318,
  " argues": 9319,
  " phenomenon": 9320,
  " overseas": 9321,
  "mers": 9322,
  "olds": 9323,
  " settled": 9324,
  "walk": 9325,
  " Beck": 9326,
  " generations": 9327,
  " weekly": 9328,
  " chicken": 9329,
  " preparing": 9330,
  " 95": 9331,
  " smartphone": 9332,
  " producers": 9333,
  " butt": 9334,
  " legislative": 9335,
  " anxiety": 9336,
  " disturb": 9337,
  " Have": 9338,
  " innocent": 9339,
  "minute": 9340,
  " Click": 9341,
  " mortg": 9342,
  " celebrate": 9343,
  " Ur": 9344,
  " PA": 9345,
  "iki": 9346,
  " provision": 9347,
  "Dem": 9348,
  " DO": 9349,
  " keys": 9350,
  "ded": 9351,
  " shame": 9352,
  " arguing": 9353,
  " Design": 9354,
  "held": 9355,
  " questioned": 9356,
  " forcing": 9357,
  " Cow": 9358,
  " Hop": 9359,
  "ompson": 9360,
  "agh": 9361,
  " broader": 9363,
  " encounter": 9364,
  "SL": 9365,
  " flags": 9366,
  " fool": 9367,
  " mac": 9368,
  " 53": 9369,
  " deadly": 9370,
  " fur": 9371,
  "84": 9372,
  " reverse": 9373,
  "oz": 9374,
  " weigh": 9375,
  " Edward": 9376,
  " Among": 9377,
  " tens": 9378,
  " ~": 9379,
  " mos": 9380,
  " wealthy": 9381,
  " Obamacare": 9382,
  " unpre": 9383,
  " maintained": 9384,
  " surely": 9385,
  " shield": 9386,
  " Prop": 9387,
  "ocolate": 9388,
  "oret": 9389,
  " secondary": 9390,
  "isa": 9391,
  "aved": 9392,
  " savings": 9393,
  "irlf": 9394,
  "Sim": 9395,
  " roof": 9396,
  " stability": 9397,
  " civilian": 9398,
  " tab": 9399,
  "elson": 9400,
  "ă": 9401,
  " Carter": 9402,
  " reveals": 9403,
  "mind": 9404,
  " mini": 9405,
  " alarm": 9406,
  " anniversary": 9407,
  " sorts": 9408,
  "ois": 9409,
  " Ak": 9410,
  "vernment": 9411,
  "El": 9412,
  " tonight": 9413,
  " releases": 9414,
  " Hon": 9415,
  " rooms": 9416,
  "irlfriend": 9417,
  "isk": 9418,
  " Gulf": 9419,
  " outrage": 9420,
  " prosecutors": 9421,
  " Left": 9422,
  " disorder": 9423,
  "inals": 9424,
  " exha": 9425,
  "orious": 9426,
  " shr": 9427,
  " relax": 9428,
  " windows": 9429,
  " threatening": 9430,
  " differently": 9431,
  " harassment": 9432,
  " quoted": 9433,
  " healthcare": 9434,
  " submitted": 9435,
  " arbit": 9436,
  " lunch": 9437,
  "step": 9438,
  "itter": 9439,
  " Run": 9440,
  " reforms": 9441,
  " torture": 9442,
  "rection": 9443,
  " fate": 9444,
  " stored": 9445,
  " okay": 9446,
  " Belg": 9447,
  " propaganda": 9448,
  " spots": 9449,
  " instructions": 9450,
  " Vietnam": 9451,
  " sevent": 9452,
  " rounds": 9453,
  " odds": 9454,
  " 1992": 9455,
  "aa": 9456,
  " aer": 9457,
  "tenance": 9458,
  "html": 9459,
  "GA": 9460,
  " errors": 9461,
  "ested": 9462,
  " Oklahoma": 9463,
  " hydro": 9464,
  "icism": 9465,
  " delic": 9466,
  "ailed": 9467,
  " Liberal": 9468,
  " silence": 9469,
  " Graham": 9470,
  "acts": 9471,
  " Warren": 9472,
  " graduate": 9473,
  " Sab": 9474,
  " affordable": 9475,
  " circle": 9476,
  "sect": 9477,
  " Bloom": 9478,
  " cooperation": 9479,
  " picks": 9480,
  " sear": 9481,
  "itary": 9482,
  " Sarah": 9483,
  " Fall": 9484,
  "orship": 9485,
  " Expl": 9486,
  " striking": 9487,
  " puzz": 9488,
  " persu": 9489,
  " streaming": 9490,
  " comprehensive": 9491,
  "race": 9492,
  " importantly": 9493,
  " cow": 9494,
  " possess": 9495,
  " fing": 9496,
  "Watch": 9497,
  " execution": 9498,
  " Ruby": 9499,
  "lined": 9500,
  "rows": 9501,
  " intim": 9502,
  " struggled": 9503,
  " Person": 9504,
  " assass": 9505,
  " Silver": 9506,
  " Leader": 9507,
  "uten": 9508,
  "ahu": 9509,
  " gent": 9510,
  " Price": 9511,
  "Ty": 9512,
  "Reuters": 9513,
  "ishop": 9514,
  " deserve": 9515,
  " Jerusalem": 9516,
  " landing": 9517,
  " calm": 9518,
  " alter": 9519,
  " ceremony": 9520,
  " assumed": 9521,
  " demonstrate": 9522,
  " difficulty": 9523,
  "83": 9524,
  " ages": 9525,
  " pron": 9526,
  " dying": 9527,
  " hal": 9528,
  " distingu": 9529,
  "asury": 9530,
  "ethe": 9531,
  " stepped": 9532,
  " borders": 9533,
  " chest": 9534,
  " Wolf": 9535,
  " Lt": 9536,
  " adventure": 9537,
  " pointing": 9538,
  " waves": 9539,
  "ova": 9540,
  " kilomet": 9541,
  "essee": 9542,
  "ierce": 9543,
  " Netflix": 9544,
  "atern": 9545,
  " autonom": 9546,
  "eals": 9547,
  " precisely": 9548,
  " architecture": 9549,
  " greatly": 9550,
  " Deb": 9551,
  " promising": 9552,
  " consent": 9553,
  "bury": 9554,
  " consideration": 9555,
  " Ten": 9556,
  " drives": 9557,
  " dialogue": 9558,
  " Main": 9559,
  " tremend": 9560,
  " Bud": 9561,
  "asant": 9562,
  " newsletter": 9563,
  " rookie": 9564,
  " awarded": 9565,
  " Meanwhile": 9566,
  "after": 9567,
  " repeat": 9568,
  " Story": 9569,
  " contribution": 9570,
  " Tele": 9571,
  " burning": 9572,
  "iev": 9573,
  "party": 9574,
  " simultane": 9575,
  " Scottish": 9576,
  " Vice": 9577,
  " donations": 9578,
  " Indust": 9579,
  "akh": 9580,
  " interf": 9581,
  "itol": 9582,
  " Magic": 9583,
  " voices": 9584,
  " analyst": 9585,
  " Bruce": 9586,
  " Tech": 9587,
  "ceptions": 9588,
  " gif": 9589,
  " frequency": 9590,
  " Common": 9591,
  " procedure": 9592,
  " Pres": 9593,
  " wanting": 9594,
  " executives": 9595,
  " playoffs": 9596,
  "lee": 9597,
  "oice": 9598,
  " staying": 9599,
  "apolis": 9600,
  " birds": 9601,
  " bias": 9602,
  "VD": 9603,
  " Hong": 9604,
  " Az": 9605,
  "izer": 9606,
  " inches": 9607,
  " trillion": 9608,
  "omy": 9609,
  "holders": 9610,
  " highlights": 9611,
  " semi": 9612,
  " remarkable": 9613,
  " whereas": 9614,
  "EX": 9615,
  "ributes": 9616,
  " Palestinians": 9617,
  " knee": 9618,
  "open": 9619,
  " Jonathan": 9620,
  " ans": 9621,
  "raig": 9622,
  " implications": 9623,
  " formation": 9624,
  "scribe": 9625,
  " superior": 9626,
  " strategies": 9627,
  "itual": 9628,
  " Berlin": 9629,
  "Step": 9630,
  " Link": 9631,
  "stal": 9632,
  "div": 9633,
  " Sydney": 9634,
  " MORE": 9635,
  " categories": 9636,
  " Ark": 9637,
  " fet": 9638,
  " followers": 9639,
  " cream": 9640,
  "Story": 9641,
  "portation": 9642,
  "FO": 9643,
  " contacted": 9644,
  "Ms": 9645,
  " judgment": 9646,
  "annon": 9647,
  " smile": 9648,
  " info": 9649,
  " emerging": 9650,
  "igious": 9651,
  "rif": 9652,
  "js": 9653,
  "TP": 9654,
  "onder": 9655,
  "omed": 9656,
  "yes": 9657,
  "bered": 9658,
  "vision": 9659,
  " Eff": 9660,
  "iffs": 9661,
  "hatt": 9662,
  " accessible": 9663,
  " crimin": 9664,
  " physically": 9665,
  " assigned": 9666,
  " 54": 9667,
  "vertisements": 9668,
  " Andre": 9669,
  " guidelines": 9670,
  " defeated": 9671,
  " wounded": 9672,
  " trials": 9673,
  " stem": 9674,
  " managing": 9675,
  " spell": 9676,
  " ministry": 9677,
  " grade": 9678,
  " coinc": 9679,
  " riding": 9680,
  " indicates": 9681,
  " centuries": 9682,
  "Christ": 9683,
  "cest": 9684,
  " Affairs": 9685,
  " opens": 9686,
  "aki": 9687,
  " pharm": 9688,
  "lla": 9689,
  " meaningful": 9690,
  "->": 9691,
  " tiss": 9692,
  "erent": 9693,
  " Mrs": 9694,
  " ease": 9695,
  "child": 9696,
  " margin": 9697,
  " Store": 9698,
  " clothing": 9699,
  " −": 9700,
  " Tes": 9701,
  " Six": 9702,
  " Capital": 9703,
  " participation": 9704,
  "cedented": 9705,
  "Mus": 9706,
  " revers": 9707,
  "aria": 9708,
  " poison": 9709,
  " Brexit": 9710,
  " 120": 9711,
  " Yemen": 9712,
  " lapt": 9713,
  " competing": 9714,
  " memories": 9715,
  " CS": 9716,
  " theories": 9717,
  " recipe": 9718,
  " gross": 9719,
  "umble": 9720,
  "author": 9721,
  "hard": 9722,
  "91": 9723,
  " passage": 9724,
  "sl": 9725,
  " aged": 9726,
  " Credit": 9727,
  " bin": 9728,
  " drone": 9729,
  " blank": 9730,
  " dispute": 9731,
  " damaged": 9732,
  " 1993": 9733,
  "van": 9734,
  " Hamilton": 9735,
  "base": 9736,
  " substance": 9737,
  " hosted": 9738,
  "TER": 9739,
  "Google": 9740,
  " Chelsea": 9741,
  " Lam": 9742,
  " promoting": 9743,
  " facilit": 9744,
  " openly": 9745,
  " Instagram": 9746,
  " 1950": 9747,
  " Vik": 9748,
  "View": 9749,
  " Children": 9750,
  " Crime": 9751,
  " clinical": 9752,
  "Out": 9753,
  " nic": 9754,
  "eremy": 9755,
  " Hold": 9756,
  "bits": 9757,
  " investments": 9758,
  " consensus": 9759,
  "even": 9760,
  "igate": 9761,
  " Leon": 9762,
  "ses": 9763,
  " Fal": 9764,
  " educational": 9765,
  "ito": 9766,
  "const": 9767,
  " dish": 9768,
  " manifest": 9769,
  " custody": 9770,
  "week": 9771,
  "82": 9772,
  " eligible": 9773,
  " Hawai": 9774,
  " legally": 9775,
  " missions": 9776,
  " endorse": 9777,
  " gate": 9778,
  "eria": 9779,
  " memo": 9780,
  " GT": 9781,
  " tables": 9782,
  " Pict": 9783,
  " nin": 9784,
  " studying": 9785,
  "Hz": 9786,
  " charity": 9787,
  "aration": 9788,
  " ?": 9789,
  "adi": 9790,
  " addresses": 9791,
  " inspect": 9792,
  " discount": 9793,
  "rix": 9794,
  "left": 9795,
  " battles": 9796,
  "ALL": 9797,
  " Der": 9798,
  " 250": 9799,
  " Assembly": 9800,
  " athletes": 9801,
  "Pre": 9802,
  " Trade": 9803,
  " fossil": 9804,
  " enthusi": 9805,
  "iac": 9806,
  " Management": 9807,
  " suspects": 9808,
  " tired": 9809,
  " helic": 9810,
  " counterpart": 9811,
  " na": 9812,
  "Act": 9813,
  "achel": 9814,
  " dating": 9815,
  " Eth": 9816,
  " spectrum": 9817,
  " Metro": 9818,
  "ateral": 9819,
  " Station": 9820,
  " Bal": 9821,
  " presentation": 9822,
  " lux": 9823,
  "gered": 9824,
  "arts": 9825,
  " bottle": 9826,
  " tap": 9827,
  "riors": 9828,
  " vig": 9829,
  " fundra": 9830,
  " enhance": 9831,
  "assy": 9832,
  " Sean": 9833,
  " therapy": 9834,
  " Wales": 9835,
  " Exper": 9836,
  " perceived": 9837,
  "market": 9838,
  " Tok": 9839,
  " dominant": 9840,
  "Def": 9841,
  "math": 9842,
  " backing": 9843,
  " Festival": 9844,
  " underlying": 9845,
  " defending": 9846,
  " Through": 9847,
  " racing": 9848,
  " discussing": 9849,
  " burden": 9850,
  " expanding": 9851,
  " muscle": 9852,
  " stops": 9853,
  "uz": 9854,
  " beings": 9855,
  " Marx": 9856,
  " Equ": 9857,
  " transaction": 9858,
  " Uber": 9859,
  " 99": 9860,
  " recruit": 9861,
  "itudes": 9862,
  "acher": 9863,
  "Cal": 9864,
  " Gary": 9865,
  " mood": 9866,
  " picking": 9867,
  "81": 9868,
  "lando": 9869,
  "ylum": 9870,
  "player": 9871,
  " managers": 9872,
  "orable": 9873,
  " gathering": 9874,
  " hopefully": 9875,
  "angle": 9876,
  " Son": 9877,
  "alysis": 9878,
  "section": 9879,
  " Video": 9880,
  " crus": 9881,
  " Libya": 9882,
  " impression": 9883,
  " hip": 9884,
  "olar": 9885,
  "â": 9886,
  " scrut": 9887,
  " roy": 9888,
  " Tai": 9889,
  "igenous": 9890,
  " institution": 9891,
  " Batman": 9892,
  "}}": 9893,
  " stere": 9894,
  " procedures": 9895,
  "ñ": 9896,
  " pocket": 9897,
  " creatures": 9898,
  " Boe": 9899,
  " compat": 9900,
  " arrival": 9901,
  "sa": 9902,
  "ptions": 9903,
  "watch": 9904,
  " eager": 9905,
  " pollution": 9906,
  "iture": 9907,
  " kitchen": 9908,
  " foods": 9909,
  "ocial": 9910,
  " recre": 9911,
  " surviv": 9912,
  "roph": 9913,
  " organic": 9914,
  " Pentagon": 9915,
  " Morgan": 9916,
  " shipping": 9917,
  " capitalism": 9918,
  " insult": 9919,
  " timing": 9920,
  "odox": 9921,
  "sub": 9922,
  " requirement": 9923,
  " unfair": 9924,
  "aders": 9925,
  " 56": 9926,
  " mice": 9927,
  " Assad": 9928,
  " Represent": 9929,
  " Mess": 9930,
  "Rem": 9931,
  " MLS": 9932,
  "bing": 9933,
  "atively": 9934,
  " Elizabeth": 9935,
  " Op": 9936,
  " diseases": 9937,
  "Mod": 9938,
  " industries": 9939,
  " Oakland": 9940,
  "dy": 9941,
  " bowl": 9942,
  "oln": 9943,
  " Murray": 9944,
  " Creat": 9945,
  " sed": 9946,
  " helicop": 9947,
  " divor": 9948,
  "agger": 9949,
  " beach": 9950,
  " punishment": 9951,
  "abet": 9952,
  " shell": 9953,
  "AF": 9954,
  "***": 9955,
  " fled": 9956,
  " hospitals": 9957,
  "missions": 9958,
  " tons": 9959,
  " Kick": 9960,
  " seed": 9961,
  "ogy": 9962,
  "SC": 9963,
  " Comey": 9964,
  "opyright": 9965,
  " statist": 9966,
  " engineers": 9967,
  " obsc": 9968,
  " hire": 9969,
  " module": 9970,
  "TR": 9971,
  "AY": 9972,
  "amous": 9973,
  " coaching": 9974,
  "oca": 9975,
  " answered": 9976,
  "rac": 9977,
  "Reg": 9978,
  " graphics": 9979,
  " regulatory": 9980,
  " sovere": 9981,
  " stance": 9982,
  "alties": 9983,
  " bow": 9984,
  " Keep": 9985,
  "Click": 9986,
  " explaining": 9987,
  " rhetoric": 9988,
  " beating": 9989,
  " Friend": 9990,
  " tut": 9991,
  " Email": 9992,
  "rior": 9993,
  " Yeah": 9994,
  "emic": 9995,
  " acknowledge": 9996,
  " Michel": 9997,
  " principal": 9998,
  " Mit": 9999,
  " pulling": 10000,
  "erves": 10001,
  " signature": 10002,
  "brid": 10003,
  "olving": 10004,
  " convince": 10005,
  " Roll": 10006,
  " variable": 10007,
  "cosystem": 10008,
  " pill": 10009,
  " searching": 10010,
  " Ox": 10011,
  " dies": 10012,
  " overcome": 10013,
  " preferred": 10014,
  "duction": 10015,
  " sixth": 10016,
  " adviser": 10017,
  " Tennessee": 10018,
  " trends": 10019,
  " Russell": 10020,
  " !": 10021,
  " (\"": 10022,
  " Thompson": 10023,
  " merch": 10024,
  "Ge": 10025,
  " rebels": 10026,
  " interaction": 10027,
  " periods": 10028,
  " Yan": 10029,
  " psychological": 10030,
  " Sure": 10031,
  "Mich": 10032,
  " Using": 10033,
  " economics": 10034,
  " Charlie": 10035,
  " Bi": 10036,
  " outlets": 10037,
  " Gil": 10038,
  " Intel": 10039,
  " signals": 10040,
  "pg": 10041,
  " echo": 10042,
  " Executive": 10043,
  " Kentucky": 10044,
  " tempor": 10045,
  " billions": 10046,
  " lineup": 10047,
  " math": 10048,
  "2013": 10049,
  " setup": 10050,
  " 1991": 10051,
  " rend": 10052,
  "Finally": 10053,
  "netic": 10054,
  "mic": 10055,
  " eggs": 10056,
  " segment": 10057,
  " arr": 10058,
  " badly": 10059,
  "kee": 10060,
  " Li": 10061,
  "ui": 10062,
  " sentenced": 10063,
  " everyday": 10064,
  " Dragon": 10065,
  " commander": 10066,
  " Holl": 10067,
  " AN": 10068,
  " loves": 10069,
  "unicipal": 10070,
  "ds": 10071,
  " genes": 10072,
  "NBC": 10073,
  " bold": 10074,
  " requiring": 10075,
  " bullet": 10076,
  " invasion": 10077,
  "will": 10078,
  "Comm": 10079,
  " partly": 10080,
  " escal": 10081,
  " instant": 10082,
  " gig": 10083,
  " Jean": 10084,
  "check": 10085,
  " arts": 10086,
  " gene": 10087,
  " removal": 10088,
  " undert": 10089,
  " upload": 10090,
  "liest": 10091,
  " Hart": 10092,
  " topics": 10093,
  " Iron": 10094,
  "enezuel": 10095,
  " inquiry": 10096,
  " amendment": 10097,
  " weakness": 10098,
  " Rather": 10099,
  " concepts": 10100,
  " Ze": 10101,
  "PL": 10102,
  " McK": 10103,
  "has": 10104,
  " shoes": 10105,
  "arted": 10106,
  " Sound": 10107,
  "news": 10108,
  " fabric": 10109,
  "izza": 10110,
  "grade": 10111,
  " Delhi": 10112,
  "tsburgh": 10113,
  "Earlier": 10114,
  " frequent": 10115,
  " sections": 10116,
  " occurs": 10117,
  "oli": 10118,
  " migrants": 10119,
  " compensation": 10120,
  " engineer": 10121,
  "eness": 10122,
  " lad": 10123,
  " Finally": 10124,
  " fo": 10125,
  " attractive": 10126,
  " Box": 10127,
  " unve": 10128,
  "instein": 10129,
  " ).": 10130,
  " citing": 10131,
  " tweets": 10132,
  " utility": 10133,
  "arency": 10134,
  "cor": 10135,
  " posting": 10136,
  " ridiculous": 10137,
  " blockchain": 10138,
  " cler": 10139,
  " Clark": 10140,
  " speaker": 10141,
  "─": 10142,
  " diam": 10143,
  "ا": 10144,
  " corrupt": 10145,
  " talented": 10146,
  " lect": 10147,
  " collaps": 10148,
  " mask": 10149,
  "‐": 10150,
  "necess": 10151,
  "screen": 10152,
  " notable": 10153,
  " Therefore": 10154,
  " elder": 10155,
  " genre": 10156,
  " deadline": 10157,
  " rolling": 10158,
  " BM": 10159,
  " carries": 10160,
  "gus": 10161,
  " Final": 10162,
  "Top": 10163,
  "via": 10164,
  "ental": 10165,
  " ET": 10166,
  " approaches": 10167,
  " eliminate": 10168,
  " Priv": 10169,
  " analysts": 10170,
  " sits": 10171,
  " cens": 10172,
  "State": 10173,
  " instances": 10174,
  " Simon": 10175,
  " publishing": 10176,
  " unprecedented": 10177,
  " colour": 10178,
  " Ve": 10179,
  " roots": 10180,
  " Phoenix": 10181,
  "VP": 10182,
  " cock": 10183,
  " bene": 10184,
  " Psych": 10185,
  " toxic": 10186,
  " collaboration": 10187,
  " arc": 10188,
  " inequality": 10189,
  " neighbors": 10190,
  " insight": 10191,
  " dramatically": 10192,
  " Harper": 10193,
  " homosexual": 10194,
  " prize": 10195,
  " towns": 10196,
  " extraordinary": 10197,
  " perception": 10198,
  " Gordon": 10199,
  " Whether": 10200,
  " Phill": 10201,
  " parad": 10202,
  "arget": 10203,
  " gest": 10204,
  " maintenance": 10205,
  "owski": 10206,
  "rowing": 10207,
  " Gro": 10208,
  " cheaper": 10209,
  "isdom": 10210,
  " associate": 10211,
  " coup": 10212,
  "Mark": 10213,
  " GO": 10214,
  " Event": 10215,
  " sheet": 10216,
  " Bow": 10217,
  " Below": 10218,
  " Sav": 10219,
  " Captain": 10220,
  "pack": 10221,
  " cognitive": 10222,
  " encouraging": 10223,
  " dreams": 10224,
  " Pers": 10225,
  " seized": 10226,
  " interviewed": 10227,
  " deployed": 10228,
  " violations": 10229,
  " camps": 10230,
  " comics": 10231,
  " constitu": 10232,
  " Reagan": 10233,
  " reserved": 10234,
  " buck": 10235,
  " employers": 10236,
  " aims": 10237,
  "atus": 10238,
  " functional": 10239,
  " mystery": 10240,
  " displayed": 10241,
  "iban": 10242,
  "Paul": 10243,
  " span": 10244,
  " loop": 10245,
  "AB": 10246,
  " delight": 10247,
  "apore": 10248,
  "cre": 10249,
  " traged": 10250,
  " Economic": 10251,
  "ixture": 10252,
  " Sa": 10253,
  " 57": 10254,
  "ricane": 10255,
  " glad": 10256,
  " occasionally": 10257,
  " vend": 10258,
  " export": 10259,
  "TON": 10260,
  " birthday": 10261,
  " heroes": 10262,
  " fatal": 10263,
  "estyle": 10264,
  "oga": 10265,
  " correctly": 10266,
  " Stew": 10267,
  " prompted": 10268,
  "wa": 10269,
  " stamp": 10270,
  "elle": 10271,
  " Cole": 10272,
  " contemporary": 10273,
  " Access": 10274,
  " Jenn": 10275,
  " prospects": 10276,
  "oting": 10277,
  "endar": 10278,
  " irre": 10279,
  "vi": 10280,
  " recommendations": 10281,
  "mir": 10282,
  " diplomatic": 10283,
  "throp": 10284,
  " pa": 10285,
  "ighth": 10286,
  " bell": 10287,
  " parallel": 10288,
  " exclud": 10289,
  "eling": 10290,
  " constitution": 10291,
  "onz": 10292,
  " disappointed": 10293,
  " manufacturers": 10294,
  " adequ": 10295,
  " intr": 10296,
  " Staff": 10297,
  " moderate": 10298,
  " Ever": 10299,
  " Dog": 10300,
  " ecosystem": 10301,
  " accompan": 10302,
  "Time": 10303,
  " demanded": 10304,
  " 85": 10305,
  " GDP": 10306,
  " nose": 10307,
  " Photos": 10308,
  " Montreal": 10309,
  " Dick": 10310,
  "ailable": 10311,
  " interpre": 10312,
  " pleased": 10313,
  "2017": 10314,
  " labour": 10315,
  " lifetime": 10316,
  " Brooklyn": 10317,
  " Tax": 10318,
  " Est": 10319,
  " Reserve": 10320,
  "rock": 10321,
  " communicate": 10322,
  " fights": 10323,
  " modified": 10324,
  " drunk": 10325,
  " Ocean": 10326,
  " sessions": 10327,
  " wedding": 10328,
  " knock": 10329,
  " explosion": 10330,
  " Library": 10331,
  " biological": 10332,
  " landed": 10333,
  " repair": 10334,
  " 58": 10335,
  " Authority": 10336,
  " EPA": 10337,
  " subsc": 10338,
  " representation": 10339,
  " Given": 10340,
  " Bol": 10341,
  " artificial": 10342,
  "250": 10343,
  "leans": 10344,
  "fit": 10345,
  "Fi": 10346,
  " relation": 10347,
  " owns": 10348,
  " Khan": 10349,
  "ixon": 10350,
  " Antonio": 10351,
  " Digital": 10352,
  " lift": 10353,
  "agen": 10354,
  " designer": 10355,
  "rot": 10356,
  " recon": 10357,
  "Thanks": 10358,
  " emp": 10359,
  " consciousness": 10360,
  " kicked": 10361,
  " Order": 10362,
  " defender": 10363,
  " hanging": 10364,
  " lessons": 10365,
  "hist": 10366,
  " imposed": 10367,
  " guests": 10368,
  " adopt": 10369,
  " anonymous": 10370,
  "150": 10371,
  " sli": 10372,
  " concerning": 10373,
  "wind": 10374,
  " pregnant": 10375,
  " Five": 10376,
  "incoln": 10377,
  " Bul": 10378,
  " underground": 10379,
  "acre": 10380,
  " maintaining": 10381,
  " asset": 10382,
  " Alan": 10383,
  " punch": 10384,
  " Rome": 10385,
  "ols": 10386,
  "bourne": 10387,
  " shirt": 10388,
  " ingredients": 10389,
  "Update": 10390,
  " cheese": 10391,
  "wed": 10392,
  " intellig": 10393,
  "isition": 10394,
  " Channel": 10395,
  " Convention": 10396,
  " podcast": 10397,
  " interior": 10398,
  "graph": 10399,
  "\":\"": 10400,
  " emotions": 10401,
  "ching": 10402,
  "human": 10403,
  " abstract": 10404,
  " Argent": 10405,
  " lesson": 10406,
  " couples": 10407,
  " creature": 10408,
  " resolve": 10409,
  " shocked": 10410,
  " oppose": 10411,
  "Whe": 10412,
  " summit": 10413,
  " performances": 10414,
  " SU": 10415,
  " volunteers": 10416,
  " Burn": 10417,
  " soldier": 10418,
  "Dis": 10419,
  "у": 10420,
  "some": 10421,
  " stimul": 10422,
  " logo": 10423,
  "appropri": 10425,
  "istant": 10426,
  " terr": 10427,
  " vocal": 10428,
  " accum": 10429,
  " girlfriend": 10430,
  " Protection": 10431,
  "ben": 10432,
  " Dur": 10433,
  "ulty": 10434,
  " jumped": 10435,
  " annoy": 10436,
  " Page": 10437,
  "SE": 10438,
  " jihad": 10439,
  " mile": 10440,
  " nurs": 10441,
  " Lear": 10442,
  "user": 10443,
  " militants": 10444,
  "acles": 10445,
  " guid": 10446,
  " Fant": 10447,
  " Missouri": 10448,
  " professionals": 10449,
  "Gener": 10450,
  "(\"": 10451,
  " Anna": 10452,
  "ikh": 10453,
  "Instead": 10454,
  " butter": 10455,
  "ials": 10456,
  " swit": 10457,
  " refers": 10458,
  " desktop": 10459,
  " traveling": 10460,
  "dr": 10461,
  " libr": 10462,
  "gets": 10463,
  " isolated": 10464,
  " forum": 10465,
  " advocate": 10466,
  " existed": 10467,
  " Lim": 10468,
  " opposing": 10469,
  " Coal": 10470,
  "gate": 10471,
  " recalled": 10472,
  "Next": 10473,
  "Station": 10474,
  "….": 10475,
  " Case": 10476,
  " Han": 10477,
  "Israel": 10478,
  " 600": 10479,
  " integration": 10480,
  " describing": 10481,
  " boxes": 10482,
  " JavaScript": 10483,
  " Orleans": 10484,
  "early": 10485,
  " stro": 10486,
  "CD": 10487,
  " Mail": 10488,
  " minimal": 10489,
  "tainment": 10490,
  " Hal": 10491,
  " confused": 10492,
  " Custom": 10493,
  " SD": 10494,
  "umph": 10495,
  " peaceful": 10496,
  " inherent": 10497,
  "abe": 10498,
  "odge": 10499,
  "cal": 10500,
  " surrounded": 10501,
  " vert": 10502,
  "owned": 10503,
  " Capitol": 10504,
  "hattan": 10505,
  " Hand": 10506,
  "commun": 10507,
  " holes": 10508,
  " meal": 10509,
  " 1989": 10510,
  " integrity": 10511,
  " Know": 10512,
  " Player": 10513,
  " pm": 10514,
  " Barb": 10515,
  " inspiration": 10516,
  " configuration": 10517,
  " Rs": 10518,
  " sne": 10519,
  " Trust": 10520,
  "hero": 10521,
  " Ban": 10522,
  " expense": 10524,
  " credits": 10525,
  " Non": 10526,
  " subur": 10527,
  " electoral": 10528,
  "TE": 10529,
  " ideology": 10530,
  " yell": 10531,
  " silent": 10532,
  " dual": 10533,
  " Marine": 10534,
  " Doctor": 10535,
  " stack": 10536,
  " suspic": 10537,
  " buried": 10538,
  " Nevada": 10539,
  "iens": 10540,
  "ç": 10541,
  "imize": 10542,
  " desperate": 10543,
  " Occ": 10544,
  "starter": 10545,
  "к": 10546,
  " scream": 10547,
  " clip": 10548,
  " choosing": 10549,
  " bombs": 10550,
  " CB": 10551,
  "Trans": 10552,
  " bands": 10553,
  " teammates": 10554,
  " fleet": 10555,
  " SH": 10556,
  " convert": 10557,
  " acceptable": 10558,
  "tra": 10559,
  " Orlando": 10560,
  "ibl": 10561,
  " jer": 10562,
  " Wright": 10563,
  "Gu": 10564,
  " registration": 10565,
  " Portug": 10566,
  " Hitler": 10567,
  "List": 10568,
  " brutal": 10569,
  "SU": 10570,
  "awks": 10571,
  "Net": 10572,
  " Move": 10573,
  " scar": 10574,
  " ancest": 10575,
  " Online": 10576,
  " Alliance": 10577,
  "election": 10578,
  " subscribe": 10579,
  " struggles": 10580,
  " keyboard": 10581,
  " momentum": 10582,
  " Leban": 10583,
  " Area": 10584,
  "aro": 10585,
  " promotion": 10586,
  " Arsenal": 10587,
  " Ven": 10588,
  " evident": 10589,
  "Fl": 10590,
  " quit": 10591,
  "hire": 10592,
  "father": 10593,
  "Name": 10594,
  " organisation": 10595,
  " wondering": 10596,
  " Indones": 10597,
  " closest": 10598,
  "mits": 10599,
  "too": 10600,
  " embrace": 10601,
  " Steel": 10602,
  "books": 10603,
  " Following": 10604,
  " refugee": 10605,
  " Hamp": 10606,
  " teeth": 10607,
  " probe": 10608,
  "ART": 10609,
  " utter": 10610,
  "chell": 10611,
  " athe": 10612,
  "Speaking": 10613,
  " Word": 10614,
  " occasional": 10615,
  " monster": 10616,
  "strong": 10617,
  " assembly": 10618,
  " bankrupt": 10619,
  " references": 10620,
  "isd": 10621,
  " journalism": 10622,
  " expenses": 10623,
  " subsequently": 10624,
  "oub": 10625,
  "stop": 10626,
  "oker": 10627,
  " pride": 10628,
  " guards": 10629,
  " Mun": 10630,
  " interpretation": 10631,
  " Venezuel": 10632,
  " yeah": 10633,
  " lin": 10635,
  "hr": 10636,
  "grad": 10637,
  " removing": 10638,
  " orbit": 10639,
  "Gl": 10640,
  " Independent": 10641,
  " Writ": 10642,
  " profound": 10643,
  "ipedia": 10644,
  "rett": 10645,
  "2012": 10646,
  " Pittsburgh": 10647,
  " compromise": 10648,
  " knife": 10649,
  " districts": 10650,
  " exclusively": 10651,
  " survived": 10652,
  " Source": 10653,
  " considerable": 10654,
  " mathemat": 10655,
  " stating": 10656,
  " engaging": 10657,
  " Could": 10658,
  " refuse": 10659,
  " bird": 10660,
  " characteristics": 10661,
  " Mountain": 10662,
  " lobb": 10663,
  " Raj": 10664,
  " justify": 10665,
  "HP": 10666,
  " dominated": 10667,
  "QL": 10668,
  " 72": 10669,
  " briefly": 10670,
  " Nazi": 10671,
  "bound": 10672,
  "arson": 10673,
  " Rest": 10674,
  " chip": 10675,
  " ministers": 10676,
  " prost": 10677,
  " electron": 10678,
  " tremendous": 10679,
  " contrary": 10680,
  "rend": 10681,
  " gri": 10682,
  " sustainable": 10683,
  " loaded": 10684,
  " flour": 10685,
  " disappear": 10686,
  " nervous": 10687,
  "Share": 10688,
  " routes": 10689,
  "orneys": 10690,
  " proportion": 10691,
  " sophistic": 10692,
  "attered": 10693,
  " executed": 10694,
  "ocated": 10695,
  "elve": 10696,
  " Duke": 10697,
  "utter": 10698,
  " asylum": 10699,
  " Everyone": 10700,
  " gameplay": 10701,
  " sexually": 10702,
  "inst": 10703,
  "Thank": 10704,
  "Hey": 10705,
  " Bu": 10706,
  " pir": 10707,
  " donors": 10708,
  " confusion": 10709,
  " Dream": 10710,
  " revolutionary": 10711,
  "amine": 10712,
  "cap": 10713,
  " Aaron": 10714,
  " Andy": 10715,
  " Pant": 10716,
  " curious": 10717,
  " Treasury": 10718,
  " harsh": 10719,
  "limited": 10720,
  "lihood": 10721,
  "income": 10722,
  " attending": 10723,
  " 800": 10724,
  " Adams": 10725,
  "KE": 10726,
  " IM": 10727,
  "immer": 10728,
  "UC": 10729,
  "è": 10730,
  "security": 10731,
  " speakers": 10732,
  "ón": 10733,
  " cabinet": 10734,
  " nowhere": 10735,
  "reek": 10736,
  "Ag": 10737,
  " flee": 10738,
  " void": 10739,
  " brands": 10740,
  " chronic": 10741,
  " printed": 10742,
  " Tesla": 10743,
  " Short": 10744,
  " charging": 10745,
  " engines": 10746,
  " physics": 10747,
  "reck": 10748,
  "anim": 10749,
  " Having": 10750,
  "function": 10751,
  "urse": 10752,
  " Mult": 10753,
  " concert": 10754,
  "scar": 10755,
  " Sheriff": 10756,
  "inge": 10757,
  " outcomes": 10758,
  " Aren": 10759,
  " Officer": 10760,
  "MAN": 10761,
  "ublished": 10762,
  "olid": 10763,
  "otte": 10764,
  " orient": 10765,
  " mirror": 10766,
  " strengthen": 10767,
  " Gib": 10768,
  " Jun": 10769,
  "thood": 10770,
  " fails": 10771,
  "opt": 10772,
  " spo": 10773,
  " obser": 10774,
  " chaos": 10775,
  ".]": 10776,
  " passenger": 10777,
  " iPad": 10778,
  " Current": 10779,
  " criminals": 10780,
  " fel": 10781,
  " Spir": 10782,
  " steady": 10783,
  " Robinson": 10784,
  "700": 10785,
  "Red": 10786,
  " Nether": 10787,
  "merce": 10788,
  " ±": 10789,
  " robust": 10790,
  " CON": 10791,
  " Manhattan": 10792,
  "white": 10793,
  "IE": 10794,
  " endors": 10795,
  " speculation": 10796,
  " Change": 10797,
  "reshold": 10798,
  " certific": 10799,
  " deemed": 10800,
  " Taliban": 10801,
  " dropping": 10802,
  " hiring": 10803,
  " Norm": 10804,
  " Giants": 10805,
  " Singapore": 10806,
  " Alp": 10807,
  " integrated": 10808,
  " Perry": 10809,
  " presents": 10810,
  " avo": 10811,
  " Ts": 10812,
  " Band": 10813,
  " FA": 10814,
  " guaranteed": 10815,
  "apper": 10816,
  " fert": 10817,
  " epic": 10818,
  " leaked": 10819,
  " Kings": 10820,
  " packages": 10821,
  "mble": 10822,
  " pleasure": 10823,
  "BN": 10824,
  "ele": 10825,
  " suspension": 10826,
  " challenged": 10827,
  " packed": 10828,
  "good": 10829,
  " checking": 10830,
  " bits": 10832,
  " vit": 10833,
  " engagement": 10834,
  " radiation": 10835,
  " slot": 10836,
  " bombing": 10837,
  " Hu": 10838,
  " patri": 10839,
  "leep": 10840,
  " da": 10841,
  " alert": 10842,
  "istle": 10843,
  "Pal": 10844,
  " wet": 10845,
  "rics": 10846,
  " hunting": 10847,
  " USB": 10848,
  " Tel": 10849,
  "riv": 10850,
  "ā": 10851,
  "ÃÂÃÂÃÂÃÂ": 10852,
  " produces": 10853,
  " witnesses": 10854,
  " Craig": 10855,
  "ophob": 10856,
  " editorial": 10857,
  " defended": 10858,
  " recovered": 10859,
  " Holy": 10860,
  "mented": 10861,
  " developments": 10862,
  " simultaneously": 10863,
  " boom": 10864,
  " Log": 10865,
  " bacteria": 10866,
  " blocking": 10867,
  " Later": 10868,
  "Right": 10869,
  " 59": 10870,
  " attracted": 10871,
  " 66": 10872,
  " figured": 10873,
  " Opp": 10874,
  " correl": 10875,
  " Hung": 10876,
  " alliance": 10877,
  " researcher": 10878,
  " Entertainment": 10879,
  " taxpayers": 10880,
  ".“": 10881,
  " Les": 10882,
  " None": 10883,
  " caps": 10884,
  "card": 10885,
  " Jeremy": 10886,
  " hosts": 10887,
  " cinem": 10888,
  " patent": 10889,
  " Russians": 10890,
  "izarre": 10891,
  " examine": 10892,
  "ATCH": 10893,
  " Future": 10894,
  " variables": 10895,
  "aste": 10896,
  " Lincoln": 10897,
  "ifier": 10898,
  " oxy": 10899,
  " embed": 10900,
  "--------------------------------": 10901,
  " junior": 10902,
  "lynn": 10903,
  "ateful": 10904,
  "Black": 10905,
  " Gh": 10906,
  "uter": 10907,
  "oned": 10908,
  " Chairman": 10909,
  " publish": 10910,
  " Tower": 10911,
  "JP": 10912,
  " tear": 10913,
  " 62": 10914,
  " meth": 10915,
  "gly": 10916,
  " breast": 10917,
  "DR": 10918,
  " Vlad": 10919,
  " vent": 10920,
  " Poland": 10921,
  " Ukrainian": 10922,
  " Studies": 10923,
  "adesh": 10924,
  "Car": 10925,
  "gged": 10926,
  "dep": 10927,
  " enact": 10928,
  "may": 10929,
  " Dak": 10930,
  " flights": 10931,
  "omic": 10932,
  " accuracy": 10933,
  " flav": 10934,
  " Bor": 10935,
  " Wi": 10936,
  " distribut": 10937,
  " los": 10938,
  " impacts": 10939,
  " Kit": 10940,
  " surprisingly": 10941,
  " solo": 10942,
  " raises": 10943,
  " burned": 10944,
  " ric": 10945,
  " Sci": 10946,
  " angle": 10947,
  "secutive": 10948,
  " Would": 10949,
  " evac": 10950,
  " qualified": 10951,
  " decrease": 10952,
  " CPU": 10953,
  "oft": 10954,
  "nie": 10955,
  "vas": 10956,
  " evolved": 10957,
  " flavor": 10958,
  "olitical": 10959,
  "test": 10960,
  " unnecess": 10961,
  "bin": 10962,
  "aco": 10963,
  " assemb": 10964,
  " Total": 10965,
  " intimid": 10966,
  "wich": 10967,
  "imir": 10968,
  " courtesy": 10969,
  " OR": 10970,
  " fingers": 10971,
  " MPs": 10972,
  "rition": 10973,
  " productive": 10974,
  "Cor": 10975,
  " voc": 10976,
  " blamed": 10977,
  "etheless": 10978,
  " HIV": 10979,
  " dependent": 10980,
  " expecting": 10981,
  " transferred": 10982,
  " Rangers": 10983,
  " enabled": 10984,
  " identical": 10985,
  " visits": 10986,
  "nan": 10987,
  " expects": 10988,
  " lane": 10989,
  " Gill": 10990,
  "dict": 10991,
  " ignor": 10992,
  " Ub": 10993,
  " accord": 10994,
  " Griff": 10995,
  "terror": 10996,
  "ishers": 10997,
  "Book": 10998,
  " Stewart": 10999,
  " venture": 11000,
  " barg": 11001,
  "Br": 11002,
  " shops": 11003,
  " departure": 11004,
  " CC": 11005,
  "TO": 11006,
  " Command": 11007,
  "iere": 11008,
  " Mississ": 11009,
  " killer": 11010,
  " repeal": 11011,
  " motivated": 11012,
  " restore": 11013,
  " agreements": 11014,
  " Du": 11015,
  " conflicts": 11016,
  " organis": 11017,
  "thodox": 11018,
  " scared": 11019,
  " forgotten": 11020,
  " Think": 11021,
  "iden": 11022,
  "icked": 11023,
  "ulse": 11024,
  " inher": 11025,
  " nationwide": 11026,
  " Edition": 11027,
  "bian": 11028,
  " cycl": 11029,
  " influenced": 11030,
  " criteria": 11031,
  " Ni": 11032,
  "ernand": 11033,
  " occupied": 11034,
  " animation": 11035,
  " BC": 11036,
  " trailer": 11037,
  " ranking": 11038,
  " Pope": 11039,
  "ERE": 11040,
  " Should": 11041,
  " Things": 11042,
  " `": 11043,
  " backs": 11044,
  "ahoo": 11045,
  " telephone": 11046,
  "df": 11047,
  " occasion": 11048,
  "about": 11049,
  "unity": 11050,
  " analys": 11051,
  " Reddit": 11052,
  " functionality": 11053,
  " checked": 11054,
  " concentration": 11055,
  " Model": 11056,
  "looking": 11057,
  " households": 11058,
  "link": 11059,
  " reass": 11060,
  "onduct": 11061,
  " algorithm": 11062,
  " courage": 11063,
  "rah": 11064,
  "ressing": 11065,
  " Support": 11066,
  "oup": 11067,
  " promoted": 11068,
  " Hug": 11069,
  " imprison": 11070,
  "aments": 11071,
  " explicitly": 11072,
  " batter": 11073,
  "iar": 11074,
  "leted": 11075,
  " desp": 11076,
  " babies": 11077,
  " tanks": 11078,
  " ought": 11079,
  " static": 11080,
  " Product": 11081,
  " releasing": 11082,
  " antib": 11083,
  " Place": 11084,
  "rike": 11085,
  " subtle": 11086,
  "Former": 11087,
  "ILL": 11088,
  " stats": 11089,
  " bases": 11090,
  " strip": 11091,
  " doct": 11092,
  "large": 11093,
  "uating": 11094,
  "Gr": 11095,
  " privilege": 11096,
  " Jerry": 11097,
  " Moreover": 11098,
  "agine": 11099,
  " Ent": 11100,
  "ippi": 11101,
  " Warner": 11102,
  "MB": 11103,
  " meters": 11104,
  " entrance": 11105,
  " NO": 11106,
  "bat": 11107,
  " tower": 11108,
  " investigated": 11109,
  "Three": 11110,
  " senators": 11111,
  "zone": 11112,
  " Cold": 11113,
  " Canadians": 11114,
  " hub": 11115,
  " wise": 11116,
  " overl": 11117,
  " applies": 11118,
  " formula": 11119,
  " Standard": 11120,
  " Eb": 11121,
  "ollar": 11122,
  " Egyptian": 11123,
  " mart": 11124,
  " Christopher": 11125,
  " inevitable": 11126,
  "breaking": 11127,
  " uncertainty": 11128,
  " provider": 11129,
  "actor": 11130,
  " painting": 11131,
  " continu": 11132,
  " modest": 11133,
  " lens": 11134,
  " influential": 11135,
  " destination": 11136,
  " Queens": 11137,
  " unre": 11138,
  " Map": 11139,
  "forward": 11140,
  "izations": 11141,
  " chips": 11142,
  "being": 11143,
  " ally": 11144,
  " infection": 11145,
  "Supp": 11146,
  " dimin": 11147,
  "leading": 11148,
  "\",\"": 11149,
  " Univers": 11150,
  " jet": 11151,
  "kes": 11152,
  " solely": 11153,
  " belt": 11154,
  " screw": 11155,
  " inaug": 11156,
  " 63": 11157,
  " insist": 11158,
  "Good": 11159,
  "Yeah": 11160,
  "rying": 11161,
  " TR": 11162,
  " Niger": 11163,
  " theft": 11164,
  "uccess": 11165,
  " Marg": 11166,
  " politician": 11167,
  " Alaska": 11168,
  " transparency": 11169,
  " PlayStation": 11170,
  " invested": 11171,
  " singer": 11172,
  " immune": 11173,
  " Ottawa": 11174,
  " provisions": 11175,
  "istance": 11176,
  " Stock": 11177,
  "town": 11178,
  " handled": 11179,
  " py": 11180,
  "overs": 11181,
  " uncomfort": 11182,
  "ampa": 11183,
  " Olympics": 11184,
  " Louisiana": 11185,
  "SD": 11186,
  " impressed": 11187,
  " inbox": 11188,
  " Oil": 11189,
  " operator": 11190,
  "ardo": 11191,
  "untu": 11192,
  " Netherlands": 11193,
  " balls": 11194,
  "Em": 11195,
  " tent": 11196,
  "ilation": 11197,
  " Jane": 11198,
  "non": 11199,
  " colleg": 11200,
  " bol": 11201,
  " similarly": 11202,
  " lifestyle": 11203,
  "offs": 11204,
  " headlines": 11205,
  "idal": 11206,
  " boards": 11207,
  "rifice": 11208,
  "?)": 11209,
  " Trek": 11210,
  "comp": 11211,
  " disabled": 11212,
  " Kr": 11213,
  "thur": 11214,
  "ixel": 11215,
  "ante": 11216,
  " Stanley": 11217,
  " operated": 11218,
  "olas": 11219,
  " regarded": 11220,
  "var": 11221,
  " Type": 11222,
  " launching": 11223,
  " SN": 11224,
  " reluct": 11225,
  " Exp": 11226,
  "achment": 11227,
  "wall": 11228,
  " Mother": 11229,
  "Down": 11230,
  " volunt": 11231,
  " photographs": 11232,
  "such": 11233,
  " kidn": 11234,
  " Drug": 11235,
  "?’": 11236,
  " sake": 11237,
  "citation": 11238,
  " keen": 11239,
  " detention": 11240,
  "track": 11241,
  "rc": 11242,
  " consecutive": 11243,
  ").[": 11244,
  "Obama": 11245,
  " gym": 11246,
  " Unlike": 11247,
  "million": 11248,
  "inite": 11249,
  " Blood": 11250,
  "gov": 11251,
  " prosecutor": 11252,
  " filter": 11253,
  " Da": 11254,
  " prosecution": 11255,
  "keley": 11256,
  " suck": 11257,
  "oning": 11258,
  "anguage": 11259,
  " conviction": 11260,
  "ige": 11261,
  "uther": 11262,
  " earthqu": 11263,
  " lean": 11264,
  " rolled": 11265,
  " kiss": 11266,
  " Table": 11267,
  "armed": 11268,
  "ista": 11269,
  " inex": 11270,
  " Modi": 11271,
  "erald": 11272,
  "orate": 11273,
  " Corporation": 11274,
  " Caption": 11275,
  "tarian": 11276,
  " Corp": 11277,
  "bitious": 11278,
  " bulk": 11279,
  "first": 11280,
  " Hampshire": 11281,
  " FO": 11282,
  " males": 11283,
  " Bir": 11284,
  "Jo": 11285,
  " tears": 11286,
  " tragedy": 11287,
  " chocolate": 11288,
  " mouse": 11289,
  " poet": 11290,
  " preserve": 11291,
  "llor": 11292,
  " guidance": 11293,
  " Father": 11294,
  " Being": 11295,
  " Sche": 11296,
  " leak": 11297,
  " Philippines": 11298,
  "Bel": 11299,
  " Forest": 11300,
  "urches": 11301,
  " nu": 11302,
  "assion": 11303,
  " bags": 11304,
  " Several": 11305,
  " reck": 11306,
  "block": 11307,
  " destro": 11308,
  " examined": 11309,
  " synd": 11310,
  " accepting": 11311,
  " elabor": 11312,
  " missiles": 11313,
  " absurd": 11314,
  "rin": 11315,
  "Further": 11316,
  " beneath": 11317,
  " neur": 11318,
  " participating": 11319,
  "vironments": 11320,
  " 1000": 11321,
  " Hans": 11322,
  "bes": 11323,
  "vo": 11324,
  " neighborhoods": 11325,
  "ucker": 11326,
  " Stanford": 11327,
  " compelling": 11328,
  " reflects": 11329,
  " Wy": 11330,
  " complained": 11331,
  " adap": 11332,
  " bother": 11333,
  " controller": 11334,
  " luxury": 11335,
  " Victoria": 11336,
  " Marc": 11337,
  " Edit": 11338,
  " Cloud": 11339,
  " Grant": 11340,
  " Morm": 11341,
  "laim": 11342,
  " theater": 11343,
  " Mario": 11344,
  " enfor": 11345,
  " Nelson": 11346,
  " shelter": 11347,
  "stra": 11348,
  "boys": 11349,
  " fer": 11350,
  " Medicare": 11351,
  "speed": 11352,
  " Tam": 11353,
  " fits": 11354,
  " Medicaid": 11355,
  " jurisd": 11356,
  "mons": 11357,
  "ouses": 11358,
  " poster": 11359,
  "usting": 11360,
  " </": 11361,
  " Knight": 11362,
  " consists": 11363,
  "”)": 11364,
  "opp": 11365,
  " pose": 11366,
  " significance": 11367,
  " Film": 11368,
  " polling": 11369,
  " stopping": 11370,
  "friendly": 11371,
  " occasions": 11372,
  " bone": 11373,
  " DE": 11374,
  " Tokyo": 11375,
  "neg": 11376,
  " Rubio": 11377,
  " wireless": 11378,
  " realistic": 11379,
  " excuse": 11380,
  "aya": 11381,
  " Local": 11382,
  " Imm": 11383,
  "Among": 11384,
  "Each": 11385,
  " Vin": 11386,
  " Cas": 11387,
  " Chron": 11388,
  " tension": 11389,
  " accompanied": 11390,
  " seeks": 11391,
  " Gard": 11392,
  " backup": 11393,
  "asm": 11394,
  "otion": 11395,
  " resemb": 11396,
  " mandate": 11397,
  " Sport": 11398,
  " theoret": 11399,
  "ello": 11400,
  " Continue": 11401,
  " assists": 11402,
  " possibilities": 11403,
  " Winter": 11404,
  " Quest": 11405,
  "fish": 11406,
  "ects": 11407,
  " beta": 11408,
  " accusations": 11409,
[...]
